{"version":"1.0","truncation":null,"padding":null,"added_tokens":[{"id":0,"special":true,"content":"[UNK]","single_word":false,"lstrip":false,"rstrip":false,"normalized":false},{"id":1,"special":true,"content":"[CLS]","single_word":false,"lstrip":false,"rstrip":false,"normalized":false},{"id":2,"special":true,"content":"[SEP]","single_word":false,"lstrip":false,"rstrip":false,"normalized":false},{"id":3,"special":true,"content":"[PAD]","single_word":false,"lstrip":false,"rstrip":false,"normalized":false},{"id":4,"special":true,"content":"[MASK]","single_word":false,"lstrip":false,"rstrip":false,"normalized":false}],"normalizer":{"type":"Sequence","normalizers":[{"type":"NFD"}]},"pre_tokenizer":{"type":"Whitespace"},"post_processor":{"type":"TemplateProcessing","single":[{"SpecialToken":{"id":"[CLS]","type_id":0}},{"Sequence":{"id":"A","type_id":0}},{"SpecialToken":{"id":"[SEP]","type_id":0}}],"pair":[{"SpecialToken":{"id":"[CLS]","type_id":0}},{"Sequence":{"id":"A","type_id":0}},{"SpecialToken":{"id":"[SEP]","type_id":0}},{"Sequence":{"id":"B","type_id":1}},{"SpecialToken":{"id":"[SEP]","type_id":1}}],"special_tokens":{"[CLS]":{"id":"[CLS]","ids":[1],"tokens":["[CLS]"]},"[SEP]":{"id":"[SEP]","ids":[2],"tokens":["[SEP]"]}}},"decoder":null,"model":{"type":"WordPiece","unk_token":"[UNK]","continuing_subword_prefix":"##","max_input_chars_per_word":100,"vocab":{"[UNK]":0,"[CLS]":1,"[SEP]":2,"[PAD]":3,"[MASK]":4,"!":5,"\"":6,"#":7,"$":8,"%":9,"&":10,"'":11,"(":12,")":13,"*":14,"+":15,",":16,"-":17,".":18,"/":19,"0":20,"1":21,"2":22,"3":23,"4":24,"5":25,"6":26,"7":27,"8":28,"9":29,":":30,";":31,"<":32,"=":33,">":34,"?":35,"@":36,"A":37,"B":38,"C":39,"D":40,"E":41,"F":42,"G":43,"H":44,"I":45,"J":46,"K":47,"L":48,"M":49,"N":50,"O":51,"P":52,"Q":53,"R":54,"S":55,"T":56,"U":57,"V":58,"W":59,"X":60,"Y":61,"Z":62,"[":63,"\\":64,"]":65,"^":66,"_":67,"`":68,"a":69,"b":70,"c":71,"d":72,"e":73,"f":74,"g":75,"h":76,"i":77,"j":78,"k":79,"l":80,"m":81,"n":82,"o":83,"p":84,"q":85,"r":86,"s":87,"t":88,"u":89,"v":90,"w":91,"x":92,"y":93,"z":94,"{":95,"|":96,"}":97,"~":98,"":99,"":100,"":101,"":102,"":103,"":104,"":105,"":106,"":107,"":108,"":109,"":110,"":111,"":112,"":113,"":114,"":115,"¡":116,"¢":117,"£":118,"¤":119,"¥":120,"§":121,"¨":122,"©":123,"«":124,"®":125,"°":126,"±":127,"³":128,"´":129,"¶":130,"·":131,"¸":132,"º":133,"»":134,"¼":135,"½":136,"¾":137,"¿":138,"Æ":139,"×":140,"Ø":141,"ß":142,"æ":143,"÷":144,"̀":145,"́":146,"̂":147,"̃":148,"̈":149,"̧":150,"##c":151,"##a":152,"##r":153,"##d":154,"##s":155,"##i":156,"##e":157,"##t":158,"##j":159,"##o":160,"##n":161,"##m":162,"##p":163,"##u":164,"##w":165,"##h":166,"##V":167,"##U":168,"##T":169,"##y":170,"##F":171,"##l":172,"##k":173,"##g":174,"##f":175,"##S":176,"##b":177,"##1":178,"##0":179,"##3":180,"##́":181,"##I":182,"##M":183,"##P":184,"##v":185,"##A":186,"##R":187,"##z":188,"##C":189,"##E":190,"##5":191,"##6":192,"##9":193,"##4":194,"##7":195,"##D":196,"##N":197,"##;":198,"##-":199,"##.":200,"##!":201,"##W":202,"##X":203,"##q":204,"##O":205,"##J":206,"##x":207,"##Y":208,"##L":209,"##8":210,"##2":211,"##̧":212,"##G":213,"##£":214,"##̀":215,"##\"":216,"##&":217,"##*":218,"##K":219,"##Q":220,"##B":221,"##Z":222,"##H":223,"##^":224,"##]":225,"##:":226,"##~":227,"##?":228,"##,":229,"##<":230,"##'":231,"##_":232,"##>":233,"##(":234,"##=":235,"##/":236,"##\\":237,"##%":238,"##·":239,"##̂":240,"##`":241,"##)":242,"##°":243,"##»":244,"##[":245,"##̈":246,"##+":247,"##}":248,"##¶":249,"##@":250,"##$":251,"##{":252,"##æ":253,"###":254,"##":255,"##«":256,"##¢":257,"##":258,"##|":259,"##ß":260,"##§":261,"##±":262,"##¾":263,"##¡":264,"##¥":265,"##":266,"##®":267,"##":268,"##":269,"##̃":270,"##":271,"##½":272,"##":273,"##©":274,"##":275,"##÷":276,"##¼":277,"##¿":278,"##":279,"##º":280,"##×":281,"##":282,"##Æ":283,"##¨":284,"##":285,"##":286,"##¸":287,"##":288,"##´":289,"##":290,"##":291,"##Ø":292,"##¤":293,"th":294,"the":295,"##er":296,"##nd":297,"##in":298,"##re":299,"##on":300,"##at":301,"of":302,"##en":303,"##it":304,"##ou":305,"##or":306,"and":307,"##ed":308,"to":309,"##es":310,"##ar":311,"##is":312,"in":313,"##ll":314,"##an":315,"##ing":316,"##ic":317,"##le":318,"be":319,"##om":320,"wh":321,"##as":322,"##ion":323,"##ir":324,"##th":325,"##al":326,"##ce":327,"##ent":328,"##ut":329,"##ve":330,"##ur":331,"that":332,"##ot":333,"##il":334,"##if":335,"re":336,"##id":337,"it":338,"##ad":339,"##ith":340,"is":341,"##im":342,"##et":343,"##el":344,"##ro":345,"for":346,"##ch":347,"he":348,"##ig":349,"Th":350,"##am":351,"an":352,"##us":353,"##ay":354,"##ow":355,"on":356,"as":357,"##ver":358,"his":359,"##ly":360,"with":361,"de":362,"or":363,"##ld":364,"##ter":365,"ha":366,"##od":367,"by":368,"##ich":369,"##our":370,"##os":371,"##ere":372,"##ain":373,"##ie":374,"con":375,"##ill":376,"##ul":377,"not":378,"##um":379,"##all":380,"at":381,"was":382,"which":383,"##nt":384,"##ore":385,"fr":386,"##ol":387,"##em":388,"##ht":389,"##ri":390,"##ra":391,"##ers":392,"##ant":393,"##ation":394,"this":395,"##ft":396,"all":397,"##ec":398,"##ak":399,"##ge":400,"The":401,"##and":402,"##ff":403,"##pp":404,"they":405,"qu":406,"are":407,"##ab":408,"their":409,"ex":410,"##qu":411,"##ous":412,"from":413,"we":414,"have":415,"him":416,"##ther":417,"##art":418,"##ould":419,"them":420,"but":421,"com":422,"##iv":423,"pro":424,"##ac":425,"##ure":426,"##ord":427,"ne":428,"##li":429,"me":430,"le":431,"fe":432,"##ight":433,"so":434,"su":435,"up":436,"ch":437,"you":438,"##ity":439,"##ard":440,"##un":441,"##ate":442,"##te":443,"##ess":444,"no":445,"##fe":446,"en":447,"there":448,"##op":449,"##fl":450,"who":451,"had":452,"##se":453,"##ire":454,"##ath":455,"##ies":456,"##pt":457,"al":458,"##cc":459,"Ch":460,"pre":461,"my":462,"##to":463,"un":464,"##st":465,"ad":466,"##ib":467,"##reat":468,"##ud":469,"##ame":470,"##ence":471,"##ive":472,"ar":473,"And":474,"man":475,"##oug":476,"##av":477,"pr":478,"sh":479,"la":480,"ab":481,"##ine":482,"##ag":483,"##ort":484,"##ind":485,"pl":486,"were":487,"will":488,"##are":489,"tr":490,"her":491,"fl":492,"our":493,"##ip":494,"if":495,"##ue":496,"do":497,"##ose":498,"any":499,"In":500,"##ear":501,"##ong":502,"##est":503,"go":504,"##ia":505,"##ome":506,"one":507,"##ne":508,"im":509,"##ii":510,"per":511,"##ice":512,"##ance":513,"upon":514,"##out":515,"##ake":516,"##ap":517,"##able":518,"##ound":519,"##fore":520,"##of":521,"##ry":522,"fa":523,"ver":524,"ag":525,"##ond":526,"##ke":527,"##wn":528,"se":529,"fu":530,"##ions":531,"may":532,"##per":533,"us":534,"He":535,"##aid":536,"##pe":537,"great":538,"##ans":539,"li":540,"##ment":541,"lo":542,"am":543,"other":544,"God":545,"##ted":546,"##one":547,"ob":548,"more":549,"part":550,"##ount":551,"##tr":552,"##he":553,"##af":554,"af":555,"##ime":556,"app":557,"##ade":558,"##cl":559,"can":560,"##ife":561,"ever":562,"##ts":563,"Wh":564,"when":565,"##lo":566,"##ng":567,"Re":568,"into":569,"your":570,"fo":571,"been":572,"St":573,"##ons":574,"##ace":575,"##ign":576,"dif":577,"than":578,"##ert":579,"##ree":580,"what":581,"##ings":582,"##uc":583,"would":584,"tw":585,"fi":586,"##cr":587,"fir":588,"##ug":589,"##ough":590,"##elf":591,"mu":592,"out":593,"dis":594,"##age":595,"te":596,"##nder":597,"##ach":598,"##fi":599,"##--":600,"##fer":601,"##ary":602,"##ub":603,"##ven":604,"il":605,"##res":606,"co":607,"very":608,"such":609,"But":610,"..":611,"It":612,"has":613,"##ust":614,"##ci":615,"##now":616,"##ok":617,"st":618,"comm":619,"being":620,"##ite":621,"##ti":622,"des":623,"then":624,"ac":625,"bo":626,"De":627,"##les":628,"said":629,"##ast":630,"pe":631,"##ces":632,"##ays":633,"made":634,"##ile":635,"po":636,"##red":637,"where":638,"ca":639,"##ick":640,"##erv":641,"br":642,"after":643,"##io":644,"cont":645,"wor":646,"some":647,"acc":648,"only":649,"fame":650,"sp":651,"again":652,"Lord":653,"##ost":654,"##ens":655,"##ious":656,"To":657,"er":658,"##ated":659,"##itt":660,"Pr":661,"##ally":662,"##urn":663,"##ide":664,"its":665,"those":666,"##ish":667,"##ee":668,"before":669,"##ell":670,"Con":671,"time":672,"good":673,"##ang":674,"gr":675,"conf":676,"know":677,"##ty":678,"##ought":679,"di":680,"##ist":681,"##ks":682,"##ful":683,"Ar":684,"##..":685,"17":686,"For":687,"every":688,"##me":689,"thy":690,"##ward":691,"##~~":692,"##ber":693,"##igh":694,"##oy":695,"##ph":696,"##ely":697,"much":698,"two":699,"##ors":700,"##oc":701,"own":702,"Mr":703,"##ves":704,"##use":705,"##fs":706,"comp":707,"##ition":708,"imp":709,"##orn":710,"##ations":711,"Com":712,"Fr":713,"now":714,"##ise":715,"##int":716,"par":717,"##lt":718,"##uf":719,"##ct":720,"exp":721,"##ave":722,"An":723,"call":724,"make":725,"##rit":726,"em":727,"ind":728,"##uth":729,"cl":730,",.":731,"rem":732,"##ents":733,"##ild":734,"##led":735,"ce":736,"Chr":737,"Pro":738,"under":739,"like":740,"##ener":741,"Ex":742,"##ren":743,"ed":744,"bec":745,"##ather":746,"##so":747,"##ult":748,"##ef":749,"did":750,"##ove":751,"ref":752,"these":753,"##land":754,"how":755,"without":756,"could":757,"ing":758,"Sp":759,"##que":760,"##der":761,"rep":762,"let":763,"##ower":764,"--":765,"bet":766,".-":767,"##aw":768,"well":769,"##ble":770,"unt":771,"King":772,"That":773,"pres":774,"This":775,"##ither":776,"many":777,"##be":778,"##ily":779,"##ient":780,"##inc":781,"yet":782,"##ved":783,"##ory":784,"##erm":785,"##ern":786,"##ai":787,"form":788,"que":789,"ho":790,"##ince":791,"##ass":792,"##ving":793,"Pl":794,"thou":795,"nat":796,"##ink":797,"ro":798,"might":799,"##ears":800,"et":801,"here":802,"If":803,"giv":804,"##nds":805,"##ular":806,"Man":807,"over":808,"##ru":809,"##we":810,"long":811,"les":812,"##own":813,"aff":814,"##ner":815,"mo":816,"##II":817,"##orm":818,"shall":819,"found":820,"ple":821,"inf":822,"ir":823,"ill":824,"nor":825,"##iz":826,"Sh":827,"##ness":828,"##self":829,"Se":830,"men":831,"tak":832,"##lic":833,"##ople":834,"off":835,"Le":836,"##iver":837,"ma":838,"Ad":839,"fee":840,"##ial":841,"##ood":842,"##co":843,"##ider":844,"So":845,"##cri":846,"ret":847,"Co":848,"mar":849,"bl":850,"##its":851,"##urch":852,"##ian":853,",,":854,"##ied":855,"##au":856,"op":857,"tl":858,"es":859,"rel":860,"fin":861,"Or":862,"##tend":863,"Jo":864,".'":865,"##ift":866,"put":867,"##llow":868,"##ail":869,"about":870,"give":871,"qui":872,"bel":873,"##ew":874,"most":875,"##row":876,"##ater":877,"end":878,"take":879,"##atter":880,"As":881,"unto":882,"also":883,"##ants":884,"##oul":885,"##ittle":886,"del":887,"##cy":888,"Sir":889,"id":890,"##ui":891,"##oun":892,"##other":893,"thr":894,"ear":895,"##und":896,"##ull":897,"never":898,"##ack":899,"gra":900,"pers":901,"##eld":902,"Tr":903,"##ih":904,"ll":905,"##mn":906,"come":907,"Be":908,"##ect":909,"ev":910,"gener":911,"day":912,"wr":913,"car":914,"Par":915,"far":916,"16":917,"##ady":918,"##ont":919,"king":920,"Ca":921,"##elves":922,"Ma":923,"ut":924,"##ier":925,"little":926,"##ilt":927,"'.":928,"fay":929,"att":930,"##ason":931,"both":932,"##hn":933,".,":934,"cr":935,"##iff":936,"cons":937,"ii":938,"##ute":939,"count":940,"therefore":941,"##xt":942,"res":943,"thee":944,"##ER":945,"##ates":946,"##ief":947,"ih":948,"Eng":949,"du":950,"even":951,"##ress":952,"rece":953,"inter":954,"##ual":955,"##air":956,"##ple":957,"##ret":958,"gl":959,"##ours":960,"char":961,"##imes":962,"##je":963,"##ody":964,"whole":965,"ft":966,"##ius":967,"We":968,"##cd":969,"##thing":970,"##ale":971,"should":972,"At":973,"Al":974,"law":975,"##not":976,"##ible":977,"inc":978,"first":979,"##ever":980,"##ures":981,"too":982,"##ution":983,"##ux":984,".\"":985,"reg":986,"##the":987,"ti":988,"pur":989,"##ifl":990,"ent":991,"Ro":992,"having":993,"ter":994,"whom":995,"11":996,"ment":997,"av":998,"fur":999,"Pe":1000,"##ains":1001,"##ins":1002,"##ope":1003,"himself":1004,"##lle":1005,"beg":1006,"14":1007,"No":1008,"##ho":1009,"cour":1010,"##aint":1011,"##unt":1012,"##alt":1013,"Part":1014,"Mar":1015,"int":1016,"##ced":1017,"bre":1018,"must":1019,"##ters":1020,",'":1021,"hath":1022,"thing":1023,"##br":1024,"place":1025,"##ertain":1026,"against":1027,"##irit":1028,"à":1029,"ra":1030,"##ords":1031,"##els":1032,"rec":1033,"##als":1034,"##ived":1035,"another":1036,"three":1037,"##ught":1038,"##ase":1039,"Su":1040,"##edi":1041,"find":1042,"13":1043,"##thers":1044,"ap":1045,"think":1046,"II":1047,"Cl":1048,"aw":1049,"mer":1050,"##ands":1051,"called":1052,"right":1053,"##ceed":1054,"though":1055,"##irc":1056,"sec":1057,"##ause":1058,"fit":1059,"ye":1060,"##og":1061,"Sc":1062,"##ae":1063,"##ities":1064,"follow":1065,"till":1066,"##wards":1067,"##ained":1068,"##00":1069,"el":1070,"##cept":1071,"Is":1072,"cor":1073,"##oin":1074,"life":1075,"given":1076,"perf":1077,"down":1078,"They":1079,"##irt":1080,"##ON":1081,"lie":1082,"eff":1083,"tem":1084,"eft":1085,"##ten":1086,"ve":1087,"tion":1088,"pub":1089,"##pl":1090,"pri":1091,"way":1092,"##ament":1093,"cond":1094,"supp":1095,"prop":1096,"def":1097,"##ical":1098,"##ms":1099,"sub":1100,"##ouse":1101,"order":1102,"people":1103,"happ":1104,"##ited":1105,"##ets":1106,"adv":1107,"##ude":1108,"##icular":1109,"##vern":1110,"12":1111,"##ix":1112,"war":1113,"things":1114,"div":1115,"cannot":1116,"##no":1117,"',":1118,"Ph":1119,"-.":1120,"mon":1121,"taken":1122,"art":1123,"##ien":1124,"gu":1125,"##ark":1126,"##bt":1127,"among":1128,"##dom":1129,"##by":1130,"each":1131,"##selves":1132,"hon":1133,"sever":1134,"##ps":1135,"##ote":1136,"##pr":1137,"add":1138,"ext":1139,"Of":1140,"heart":1141,"##ired":1142,"John":1143,"love":1144,"##cs":1145,"fore":1146,"##cn":1147,"##ls":1148,"high":1149,"Po":1150,"##ged":1151,"jud":1152,"Let":1153,"##uit":1154,"new":1155,"present":1156,"##OR":1157,"mak":1158,"Me":1159,"##alf":1160,"Comm":1161,"others":1162,"Go":1163,"##iam":1164,"##ording":1165,"came":1166,".)":1167,"##ared":1168,"thought":1169,"lar":1170,"four":1171,"hum":1172,"done":1173,"proper":1174,"##bl":1175,"##po":1176,"##ances":1177,"kind":1178,"Wor":1179,"power":1180,"through":1181,"Gr":1182,"certain":1183,"##wer":1184,"tre":1185,"min":1186,"##arn":1187,"Am":1188,"contin":1189,"15":1190,"En":1191,"occ":1192,"---":1193,"##vent":1194,"##uthor":1195,"##ck":1196,"adm":1197,"##up":1198,"ten":1199,"bro":1200,"##lem":1201,"equ":1202,"hand":1203,"fre":1204,"##ific":1205,"##ilh":1206,"conc":1207,"vi":1208,"tho":1209,"There":1210,"##ep":1211,"##ried":1212,"##oss":1213,"##ibus":1214,"pra":1215,"Ed":1216,"10":1217,"20":1218,"##ety":1219,"because":1220,"red":1221,"é":1222,"she":1223,"##att":1224,"##ides":1225,"Char":1226,"fort":1227,"true":1228,"##ene":1229,"num":1230,"##oo":1231,"Qu":1232,"nothing":1233,"ib":1234,"near":1235,"##ugh":1236,"##ween":1237,"da":1238,"##incip":1239,"##ars":1240,"ly":1241,"Per":1242,"world":1243,"##ently":1244,"##fr":1245,"##ett":1246,"##ines":1247,".]":1248,"non":1249,"read":1250,"thus":1251,"above":1252,"##ior":1253,"ass":1254,"##vers":1255,"pa":1256,"sc":1257,"left":1258,"Christ":1259,"spe":1260,"ou":1261,"##ird":1262,".:":1263,"##ement":1264,"serv":1265,"##ives":1266,"common":1267,"mn":1268,"##rown":1269,"vo":1270,"lib":1271,"fall":1272,"turn":1273,"either":1274,"thle":1275,"Men":1276,"pass":1277,"ot":1278,"##~~~~":1279,"full":1280,"##une":1281,"sent":1282,"several":1283,"between":1284,"##erve":1285,"ta":1286,"Im":1287,"##ages":1288,"Ab":1289,"belie":1290,"cap":1291,":.":1292,"TH":1293,"appear":1294,"particular":1295,"ins":1296,"pour":1297,"##ately":1298,"obs":1299,"prov":1300,"Will":1301,"##rt":1302,"##ium":1303,"##osed":1304,"faith":1305,"Bo":1306,"##de":1307,"ey":1308,"opp":1309,"Ih":1310,"Pers":1311,"##EN":1312,"On":1313,"use":1314,"seem":1315,"##ices":1316,"last":1317,"What":1318,"dr":1319,"land":1320,"When":1321,"##ati":1322,"dra":1323,"Br":1324,"tri":1325,"##gn":1326,"prod":1327,"old":1328,"nec":1329,"ef":1330,"und":1331,"##atis":1332,"dep":1333,"according":1334,"inde":1335,"son":1336,"19":1337,"differ":1338,"imm":1339,"##avour":1340,"return":1341,"##any":1342,"whe":1343,"si":1344,"dou":1345,"general":1346,"##ges":1347,"Cour":1348,"ord":1349,"themselves":1350,"##tion":1351,"His":1352,"##ES":1353,",-":1354,"col":1355,"name":1356,"##uty":1357,"alw":1358,"mind":1359,"##aven":1360,"brought":1361,"fam":1362,"##yr":1363,"Church":1364,"##ues":1365,"##ined":1366,"tra":1367,"##ments":1368,"une":1369,"ali":1370,"obl":1371,"##AR":1372,"##urs":1373,"manner":1374,"reason":1375,"au":1376,"##outh":1377,"bu":1378,"##ating":1379,"Law":1380,"look":1381,"sm":1382,"hall":1383,"Pre":1384,"##ah":1385,"kee":1386,"24":1387,"ther":1388,"##IN":1389,"fix":1390,"##ane":1391,"##ury":1392,"##lh":1393,"##gether":1394,"##oit":1395,"nature":1396,"Ear":1397,"je":1398,"det":1399,"ur":1400,"enter":1401,"cle":1402,"##iend":1403,"away":1404,"set":1405,"##elt":1406,"aut":1407,"year":1408,"Il":1409,";.":1410,"##iss":1411,"##ning":1412,"sl":1413,"Nor":1414,"Count":1415,"##oman":1416,"ought":1417,"less":1418,"23":1419,"##ames":1420,"##iness":1421,"hi":1422,"##cript":1423,"death":1424,"Ho":1425,"Ne":1426,"##fo":1427,"##ffic":1428,"##ils":1429,"Time":1430,"##ffe":1431,"dire":1432,"decl":1433,"##tern":1434,"care":1435,"always":1436,"By":1437,"All":1438,"##less":1439,"ri":1440,"ph":1441,"##ili":1442,"##ys":1443,"##ari":1444,"requ":1445,"pleas":1446,"##anc":1447,"prom":1448,"head":1449,"Gra":1450,"nd":1451,"##ait":1452,"##fc":1453,"fire":1454,"fle":1455,"lh":1456,"tell":1457,"cur":1458,"soon":1459,"##lood":1460,"##itted":1461,"gave":1462,"How":1463,"est":1464,"years":1465,"##alk":1466,"just":1467,"##igion":1468,"Ind":1469,"##ange":1470,"country":1471,"account":1472,"##AN":1473,"ru":1474,"laid":1475,"##ature":1476,"der":1477,"child":1478,"ie":1479,"##ery":1480,"##ural":1481,"does":1482,"##ided":1483,"body":1484,"took":1485,"pay":1486,"while":1487,"##par":1488,"within":1489,"plac":1490,"person":1491,"##ued":1492,"##dd":1493,"better":1494,"rc":1495,"##ches":1496,"open":1497,"Dr":1498,"##iles":1499,"vol":1500,"##omin":1501,"fac":1502,"former":1503,"##cover":1504,"lay":1505,"##mon":1506,"fc":1507,"princip":1508,"circ":1509,"22":1510,"fub":1511,"##erc":1512,"##fa":1513,"Un":1514,"arm":1515,"emp":1516,"##oney":1517,"##tended":1518,"##gy":1519,"##iew":1520,"cafe":1521,"##nded":1522,"##ting":1523,"together":1524,"fp":1525,"Cor":1526,"ans":1527,"##ifh":1528,"io":1529,"keep":1530,"mod":1531,"wife":1532,"dans":1533,"30":1534,"She":1535,"##ats":1536,"##TI":1537,"next":1538,"##eth":1539,"Em":1540,"##rs":1541,"ai":1542,"often":1543,".;":1544,"wit":1545,"work":1546,"Do":1547,"##ians":1548,"since":1549,"18":1550,"water":1551,"whose":1552,"England":1553,"##la":1554,"##eng":1555,"##irs":1556,"##read":1557,"27":1558,"##anger":1559,"21":1560,"dev":1561,"fer":1562,"25":1563,"dec":1564,"##olt":1565,"##na":1566,"light":1567,"Lo":1568,"ni":1569,"hear":1570,"##ns":1571,"##ards":1572,"few":1573,"You":1574,"Pa":1575,"sw":1576,"foul":1577,"##empt":1578,"Rel":1579,"##fic":1580,"contr":1581,"##ina":1582,"Af":1583,"went":1584,"##ense":1585,"##ni":1586,"Day":1587,"fill":1588,"With":1589,"confider":1590,"##ounds":1591,"fol":1592,"able":1593,"gre":1594,"ic":1595,"mention":1596,"##ton":1597,"speak":1598,"indeed":1599,"bring":1600,"fat":1601,"ele":1602,"ol":1603,"##idence":1604,"##irm":1605,"den":1606,"See":1607,"oblig":1608,"om":1609,"Son":1610,"earth":1611,"-,":1612,"##IS":1613,"##fp":1614,"##....":1615,"##iter":1616,"word":1617,"26":1618,"##vi":1619,"##rr":1620,"concern":1621,"##ss":1622,"want":1623,"##ock":1624,"##amp":1625,"Life":1626,"young":1627,"once":1628,";,":1629,"##az":1630,"Not":1631,"##ler":1632,"live":1633,"##oud":1634,"##uced":1635,"mean":1636,"##orum":1637,"##wise":1638,"reft":1639,"Fl":1640,"writ":1641,"##ably":1642,"wv":1643,"##ica":1644,"fil":1645,"cal":1646,"My":1647,"large":1648,"##ify":1649,"Fa":1650,"##ling":1651,"Jud":1652,"half":1653,"::":1654,"house":1655,"~~":1656,"Ge":1657,"Her":1658,"##lly":1659,"Acc":1660,"Sub":1661,"##uff":1662,"##anding":1663,"##ised":1664,"str":1665,"ion":1666,"29":1667,"bar":1668,"means":1669,"##uring":1670,"val":1671,"##bit":1672,"##ility":1673,"##ax":1674,"##ank":1675,"##ison":1676,"##lied":1677,"pas":1678,"lt":1679,"whether":1680,"Car":1681,"##bs":1682,"##yn":1683,"ble":1684,"govern":1685,"words":1686,"##go":1687,"##itude":1688,"Mon":1689,"##undred":1690,"mi":1691,"'-":1692,"fli":1693,"Col":1694,"##man":1695,"deg":1696,"cause":1697,"days":1698,"ke":1699,"##ots":1700,"##uted":1701,"pray":1702,"##omet":1703,"Then":1704,"##hip":1705,"matter":1706,"##aps":1707,"pat":1708,"##oi":1709,"##loy":1710,"##ences":1711,"fear":1712,"don":1713,"Du":1714,"##emb":1715,"believe":1716,"five":1717,"##rench":1718,"##ires":1719,"fide":1720,"dit":1721,"##ually":1722,"Father":1723,"point":1724,"##11":1725,"##aves":1726,"##rib":1727,"prof":1728,"Bar":1729,"##ured":1730,"known":1731,"Cr":1732,"eas":1733,"##eds":1734,"##app":1735,"ang":1736,"##inal":1737,"##asion":1738,"##pre":1739,"gent":1740,"##her":1741,"author":1742,"##ites":1743,"##idd":1744,"hard":1745,"ci":1746,"virt":1747,"Now":1748,"public":1749,"hold":1750,"sur":1751,"rt":1752,"##inion":1753,"die":1754,"bur":1755,"##cil":1756,"disp":1757,"##uce":1758,"acqu":1759,"Ef":1760,"cut":1761,"church":1762,"Hen":1763,"##ified":1764,"##pend":1765,"28":1766,"mor":1767,"court":1768,"##for":1769,"times":1770,"observ":1771,"##ze":1772,"La":1773,"##uft":1774,"parts":1775,"plain":1776,"grant":1777,"received":1778,"inv":1779,"late":1780,":,":1781,"33":1782,"proceed":1783,"##ident":1784,"deliver":1785,"##é":1786,"##ea":1787,"honour":1788,"##AL":1789,"##ifi":1790,"different":1791,"ip":1792,"greater":1793,"priv":1794,"tis":1795,"##ym":1796,"neither":1797,"##ann":1798,"##ffer":1799,"Maj":1800,"##lr":1801,"##lc":1802,"##fort":1803,"People":1804,"defe":1805,"nt":1806,"##iends":1807,"THE":1808,"hor":1809,"##ops":1810,"rather":1811,"Ir":1812,"##cell":1813,"##ened":1814,"poor":1815,"second":1816,"father":1817,"##eter":1818,"che":1819,"##iving":1820,"##rew":1821,"##liament":1822,",\"":1823,"run":1824,"##ca":1825,"air":1826,"fh":1827,"##iti":1828,"ant":1829,"##ott":1830,"##ring":1831,"Fe":1832,"necess":1833,"##ledge":1834,"fal":1835,"Dis":1836,"mag":1837,"answer":1838,"##itu":1839,"World":1840,"##iii":1841,"##atch":1842,"Spirit":1843,"##wh":1844,"34":1845,"##ini":1846,"pol":1847,"fays":1848,"##US":1849,"learn":1850,"term":1851,"sign":1852,"tie":1853,"##ows":1854,"plus":1855,"Et":1856,",:":1857,"##ished":1858,"##ative":1859,"tro":1860,"-'":1861,"infl":1862,"''":1863,"##enty":1864,"Lond":1865,"told":1866,"met":1867,"##gment":1868,"pen":1869,"tu":1870,"##rd":1871,"bea":1872,"heard":1873,"##ob":1874,"leave":1875,"Je":1876,"ry":1877,"Sec":1878,"mot":1879,"chief":1880,"leg":1881,"Good":1882,"France":1883,"hundred":1884,"command":1885,"French":1886,"tb":1887,"bear":1888,"fine":1889,"From":1890,"31":1891,"city":1892,"##rn":1893,"##uch":1894,"##abl":1895,"ig":1896,"Gl":1897,"36":1898,"truth":1899,"peace":1900,"port":1901,"dil":1902,"40":1903,"CH":1904,"however":1905,"##hold":1906,"##tt":1907,"##lf":1908,"thereof":1909,"Court":1910,"##ips":1911,"iv":1912,"##thy":1913,"##cour":1914,"mis":1915,"##ics":1916,"exc":1917,"##ham":1918,"Brit":1919,"dem":1920,"App":1921,"offer":1922,"hands":1923,"##ator":1924,":'":1925,"##end":1926,"small":1927,"##ung":1928,"allow":1929,"number":1930,"forth":1931,"##AT":1932,"tle":1933,"town":1934,"hope":1935,"##sequ":1936,"beh":1937,"trou":1938,"':":1939,"##ani":1940,"wa":1941,"Fo":1942,"##ries":1943,"consider":1944,"##ony":1945,"##pec":1946,"##aim":1947,"##ille":1948,"Lat":1949,"Ac":1950,"treat":1951,"back":1952,"##ughter":1953,"##LE":1954,"eng":1955,"32":1956,"coun":1957,"ave":1958,"##ule":1959,"tou":1960,"immedi":1961,"mal":1962,"ful":1963,"spirit":1964,"##osition":1965,"exec":1966,"##bi":1967,"##with":1968,"##ese":1969,"Ant":1970,"\"'":1971,"Nature":1972,"none":1973,"fut":1974,"free":1975,"37":1976,"towards":1977,"##avi":1978,"##gr":1979,"##rupt":1980,"cum":1981,"dist":1982,"tile":1983,"equal":1984,"Ang":1985,"seen":1986,"35":1987,"##haps":1988,"Chris":1989,":-":1990,"exam":1991,"fon":1992,"avo":1993,"trans":1994,"Ob":1995,"ven":1996,"following":1997,"Mo":1998,"##che":1999,"night":2000,"Te":2001,"##ength":2002,"##ict":2003,"ge":2004,"best":2005,"##rem":2006,"natural":2007,",;":2008,"Lib":2009,"enem":2010,"ow":2011,"##ination":2012,"ser":2013,"appro":2014,"lab":2015,"obt":2016,"Serv":2017,"pie":2018,"##ua":2019,"Gent":2020,"self":2021,"Comp":2022,"##aining":2023,"pof":2024,"##rc":2025,"Hon":2026,"##joy":2027,"least":2028,"##ention":2029,"Rep":2030,"Where":2031,"favour":2032,"hl":2033,"Can":2034,"Ep":2035,"used":2036,"ann":2037,"holy":2038,"fair":2039,"kne":2040,"alm":2041,"Power":2042,"##̂t":2043,"William":2044,"##ully":2045,"Love":2046,"pi":2047,"na":2048,"ren":2049,"##owers":2050,"dy":2051,"ith":2052,"##crib":2053,"purp":2054,"vis":2055,"fell":2056,"children":2057,"##men":2058,"tit":2059,"meet":2060,"##ngth":2061,"vous":2062,"gen":2063,"Place":2064,"##let":2065,"sing":2066,"xx":2067,"##itions":2068,"Pri":2069,"age":2070,"round":2071,"##por":2072,"ground":2073,"##ality":2074,"##ned":2075,"##uli":2076,"##oph":2077,"##vo":2078,"##roy":2079,"New":2080,"Bl":2081,"anim":2082,"sol":2083,"Jes":2084,"ere":2085,"blood":2086,"##ember":2087,"employ":2088,"makes":2089,"##ici":2090,"poss":2091,"Thus":2092,"##erty":2093,"grow":2094,"##ron":2095,"sure":2096,"tt":2097,"receive":2098,"low":2099,"Ap":2100,"Phil":2101,"##flion":2102,"Gu":2103,"ty":2104,"dc":2105,"regard":2106,"thi":2107,"##alth":2108,"died":2109,"conce":2110,"har":2111,"mult":2112,"##acr":2113,"Mer":2114,"Death":2115,"One":2116,"##atur":2117,"view":2118,"Prince":2119,"making":2120,"39":2121,";:":2122,"##mer":2123,"IV":2124,"##ley":2125,"##uck":2126,"##angu":2127,"still":2128,"Ev":2129,"Reg":2130,"##jec":2131,"##ger":2132,"##inary":2133,"Dif":2134,"Di":2135,"tor":2136,"Soul":2137,"fec":2138,"Right":2139,"nece":2140,"##abit":2141,"rs":2142,"Rich":2143,"Sw":2144,"Thom":2145,"fig":2146,"##iment":2147,"##ref":2148,"##ORD":2149,"friend":2150,"circum":2151,"Prov":2152,"##fficient":2153,"incl":2154,"ihe":2155,"hel":2156,"##nefs":2157,"clo":2158,"##ris":2159,"except":2160,"Min":2161,"Author":2162,".--":2163,"alone":2164,"frequ":2165,"##ths":2166,"thous":2167,"doubt":2168,"##thod":2169,"Body":2170,"War":2171,"enough":2172,"publ":2173,"##omp":2174,"prob":2175,"conv":2176,"Ag":2177,"##enf":2178,"rich":2179,"Que":2180,"third":2181,"##tian":2182,"pet":2183,"eyes":2184,"Year":2185,"force":2186,"appe":2187,"House":2188,"##pon":2189,"Ver":2190,"human":2191,"Rom":2192,"Art":2193,"imag":2194,"bes":2195,"Div":2196,"),":2197,"##pet":2198,"Great":2199,"heaven":2200,"abs":2201,"London":2202,"44":2203,"##ij":2204,"fight":2205,"afterwards":2206,"##well":2207,"fail":2208,"persons":2209,"dead":2210,"ben":2211,"lord":2212,"##cip":2213,"clear":2214,"saw":2215,";'":2216,"unc":2217,"rn":2218,"cc":2219,"fif":2220,"##IT":2221,"##ata":2222,"##ometimes":2223,"dé":2224,"##irg":2225,"perhaps":2226,"need":2227,"##OL":2228,"join":2229,"##ivers":2230,"pun":2231,"begin":2232,"##fit":2233,"due":2234,"neg":2235,"##ek":2236,"grace":2237,"doth":2238,"Who":2239,"mort":2240,"##di":2241,"##arent":2242,"occasion":2243,"cro":2244,"joy":2245,"##oses":2246,"led":2247,"~,":2248,"tran":2249,"##ield":2250,"paid":2251,"These":2252,"vel":2253,"##inces":2254,";-":2255,"contrary":2256,"cover":2257,"41":2258,"##ument":2259,"ba":2260,"agree":2261,"43":2262,"fum":2263,"Coun":2264,"Engl":2265,"mentioned":2266,"danger":2267,"fun":2268,"##esty":2269,").":2270,"anci":2271,":;":2272,"adj":2273,"viol":2274,"##ilit":2275,"##antage":2276,"##ially":2277,"##arch":2278,"sus":2279,"##ouf":2280,"##ready":2281,"May":2282,"##omen":2283,"Tw":2284,"Henry":2285,"Here":2286,"dear":2287,"appears":2288,"real":2289,"Num":2290,"aid":2291,"kept":2292,"##rent":2293,"during":2294,"Sin":2295,"';":2296,"##ey":2297,"concl":2298,"seems":2299,"book":2300,"Name":2301,"inform":2302,"Person":2303,"##uly":2304,"forg":2305,"yn":2306,"ct":2307,"##ched":2308,"##IC":2309,"muff":2310,"Jesus":2311,"ia":2312,"Cont":2313,"draw":2314,"Efq":2315,"Cap":2316,"##RE":2317,"become":2318,"Int":2319,"##know":2320,"##ln":2321,"##bert":2322,"##aviour":2323,"38":2324,"Govern":2325,"import":2326,"loft":2327,"born":2328,"wi":2329,"vain":2330,"45":2331,"Heart":2332,"length":2333,"carry":2334,"Gener":2335,"Aff":2336,"cou":2337,"##asure":2338,"prevent":2339,"Si":2340,"ay":2341,"cre":2342,"afore":2343,"thall":2344,"Dec":2345,"nation":2346,"grand":2347,"already":2348,"render":2349,"lead":2350,"##urg":2351,"##ners":2352,"##cre":2353,"##ette":2354,"reign":2355,"##mo":2356,"##ternal":2357,"arri":2358,"##aft":2359,"lui":2360,"##cho":2361,"thousand":2362,"kingdom":2363,"##ointed":2364,"ju":2365,"LORD":2366,"hat":2367,"creat":2368,"##utes":2369,"perform":2370,"omn":2371,"express":2372,"##ato":2373,"pu":2374,"determ":2375,"belong":2376,"AN":2377,"##ney":2378,"##oyal":2379,"iii":2380,"prove":2381,"##aving":2382,"itself":2383,"ei":2384,"pec":2385,"Conf":2386,"eat":2387,"consequ":2388,"Years":2389,"money":2390,"med":2391,"##acy":2392,"var":2393,"##va":2394,"ts":2395,"Sal":2396,"twenty":2397,"happy":2398,"inh":2399,"Lady":2400,"Cons":2401,"od":2402,"III":2403,"why":2404,"##ccess":2405,"necessary":2406,"##fon":2407,"##ency":2408,"Thomas":2409,"quod":2410,"inst":2411,"##aff":2412,"cn":2413,"spec":2414,"##IL":2415,"XX":2416,"Inter":2417,"Des":2418,"anti":2419,"pain":2420,"arg":2421,"##aster":2422,"caf":2423,"Book":2424,"resol":2425,"##bo":2426,"##ented":2427,"ec":2428,"Inf":2429,"##rees":2430,"##OD":2431,"##III":2432,"##afe":2433,"held":2434,"fan":2435,"##ones":2436,"ready":2437,"##icked":2438,"Li":2439,"Earl":2440,"get":2441,"prev":2442,"##pel":2443,"fed":2444,"ihall":2445,"opinion":2446,"Id":2447,"lat":2448,"##mi":2449,"likewise":2450,"lit":2451,"thl":2452,"cent":2453,"##ises":2454,"##orning":2455,"##pri":2456,"cu":2457,"##ford":2458,"Pat":2459,"##onder":2460,"##EL":2461,"tout":2462,"cf":2463,"IN":2464,"47":2465,"##attle":2466,"nam":2467,"lim":2468,"orig":2469,"extra":2470,"ende":2471,"##cf":2472,"thie":2473,"Off":2474,"##ftr":2475,"##uous":2476,"gives":2477,"carried":2478,"sil":2479,"##ma":2480,"knew":2481,"After":2482,"enjoy":2483,"##rength":2484,"Duke":2485,"State":2486,"##lex":2487,"Things":2488,"##oured":2489,"46":2490,"bra":2491,"##port":2492,"immediately":2493,"##fully":2494,"##vel":2495,"rr":2496,"proc":2497,"rh":2498,"impro":2499,"##ita":2500,"##itur":2501,"42":2502,"afl":2503,"##aded":2504,"ils":2505,"inte":2506,"got":2507,"Jew":2508,"dro":2509,"Sy":2510,"##ked":2511,"inj":2512,"##airs":2513,"Dav":2514,"glory":2515,"friends":2516,"##vy":2517,"attend":2518,"inl":2519,"wo":2520,"##gs":2521,"##oms":2522,"##pper":2523,"Some":2524,"##my":2525,"design":2526,"Cafe":2527,"Gre":2528,"divine":2529,"thould":2530,"##emn":2531,"Cal":2532,"##itten":2533,"##oint":2534,"Reason":2535,"bound":2536,"##tl":2537,"taking":2538,"Religion":2539,"rev":2540,"49":2541,"Child":2542,"Op":2543,"##orious":2544,"##atio":2545,"weak":2546,"quant":2547,"places":2548,"Persons":2549,"##cious":2550,"##used":2551,"##ills":2552,"Head":2553,"religion":2554,"pal":2555,"Scot":2556,"ign":2557,"cho":2558,"##band":2559,"##aces":2560,"feet":2561,"##ares":2562,"Har":2563,"##AS":2564,"gro":2565,"##ken":2566,"##bour":2567,"Ste":2568,"further":2569,"Ib":2570,"##ET":2571,"##ules":2572,"##aged":2573,"Ref":2574,"began":2575,"thir":2576,"Bro":2577,"##cm":2578,"##quer":2579,"Rome":2580,"eight":2581,"fend":2582,"viz":2583,"mount":2584,"Ey":2585,"Ple":2586,"##inted":2587,"Chap":2588,"##ror":2589,"obliged":2590,"hop":2591,"hom":2592,"End":2593,"generally":2594,"discover":2595,"concerning":2596,"Lords":2597,"##amn":2598,"Parliament":2599,"inn":2600,"greatest":2601,"compl":2602,"diffic":2603,"bad":2604,"##kind":2605,"##reed":2606,"Ben":2607,"##ali":2608,"evil":2609,"face":2610,"##leman":2611,"##lin":2612,"oo":2613,"James":2614,"Charles":2615,"##Et":2616,"dd":2617,"Cond":2618,"##AM":2619,"mine":2620,"sometimes":2621,"wind":2622,"##ais":2623,"elle":2624,"excell":2625,"##cnt":2626,"cred":2627,"Earth":2628,"pot":2629,"oi":2630,"##ience":2631,"##ores":2632,"##ales":2633,"48":2634,"lic":2635,"##lar":2636,"exper":2637,"##rael":2638,"Rem":2639,"##vere":2640,"Country":2641,"mem":2642,"##oke":2643,"##rod":2644,"emb":2645,"##said":2646,"Geor":2647,"-:":2648,"##ape":2649,"##UR":2650,"Yet":2651,"ces":2652,"pret":2653,"break":2654,"virtue":2655,"Gree":2656,"##iful":2657,"nous":2658,"##eal":2659,"Eli":2660,"##vation":2661,"kn":2662,"##hi":2663,"/.":2664,"const":2665,"##ising":2666,"Faith":2667,"Thou":2668,"##icul":2669,"##ume":2670,"sufficient":2671,"##atever":2672,"ng":2673,"continued":2674,"civ":2675,"##ald":2676,"support":2677,"...":2678,"##wy":2679,"Tem":2680,"Our":2681,"##ols":2682,"fie":2683,"heav":2684,"##mit":2685,"Holy":2686,"sens":2687,"~.":2688,"Which":2689,"##lon":2690,"avec":2691,"##vey":2692,"crown":2693,"latter":2694,"##hall":2695,"##té":2696,"longer":2697,"Sum":2698,"incre":2699,"fem":2700,"##uties":2701,"tions":2702,"mut":2703,"##ny":2704,"Da":2705,"sea":2706,"Ba":2707,"fait":2708,"6d":2709,"##ject":2710,"50":2711,"thin":2712,"Str":2713,"##ba":2714,"thro":2715,"Port":2716,"Mad":2717,"##ander":2718,"##lu":2719,"##ize":2720,"tin":2721,"##itution":2722,"ard":2723,"##fu":2724,"City":2725,"##gar":2726,"##oment":2727,"##iers":2728,"##ité":2729,"dece":2730,"Peace":2731,"deep":2732,"laws":2733,"kill":2734,"ea":2735,"##ased":2736,"Io":2737,"comes":2738,"##icles":2739,"##very":2740,"entire":2741,"Hor":2742,"nm":2743,"defend":2744,"noble":2745,"##arr":2746,"##~~~~~~~~":2747,"Their":2748,"rd":2749,"super":2750,"Pray":2751,"Pra":2752,"##lled":2753,"Roman":2754,"Mind":2755,"myself":2756,"El":2757,"Account":2758,"##aly":2759,"tur":2760,"quar":2761,"Matter":2762,"appointed":2763,"Eur":2764,"Gen":2765,"Adv":2766,"commun":2767,"Town":2768,"##teen":2769,"lu":2770,"Grace":2771,"sense":2772,"alter":2773,"Sa":2774,"##riage":2775,"course":2776,"Words":2777,"refpe":2778,"##ital":2779,"ancient":2780,"fel":2781,"purpose":2782,"Mrs":2783,"cx":2784,"##uded":2785,"Sol":2786,"##bers":2787,"##ids":2788,"ted":2789,"##AP":2790,"arms":2791,"##jet":2792,"almost":2793,"hy":2794,"god":2795,"duty":2796,"desire":2797,"serve":2798,"ine":2799,"sim":2800,"going":2801,"dic":2802,"Bre":2803,"aft":2804,"##ov":2805,"dark":2806,"aforesaid":2807,"tot":2808,"repres":2809,"##ifc":2810,"##ufe":2811,"Land":2812,"##__":2813,"VI":2814,"foot":2815,"##ging":2816,"##odies":2817,"##ction":2818,"bus":2819,"degree":2820,"help":2821,"letter":2822,"maj":2823,"corn":2824,"##iled":2825,"prep":2826,"##cend":2827,"##weet":2828,"works":2829,"##ric":2830,"Pet":2831,"##antly":2832,"##ams":2833,"Kingdom":2834,"interest":2835,"##inder":2836,"##min":2837,"tim":2838,"army":2839,"54":2840,"tbe":2841,"Heaven":2842,"brother":2843,"gold":2844,"Parts":2845,"um":2846,"General":2847,"molt":2848,"##aries":2849,"fro":2850,"accept":2851,"dift":2852,"53":2853,"##ria":2854,"Del":2855,"Sur":2856,"##umn":2857,"ibid":2858,"dl":2859,"prince":2860,"##fy":2861,"Why":2862,"fy":2863,"daughter":2864,"white":2865,"eye":2866,"Att":2867,"private":2868,"ep":2869,"nl":2870,"David":2871,"shew":2872,"contra":2873,"alt":2874,"##char":2875,"line":2876,"Water":2877,"##itr":2878,"Word":2879,"coming":2880,"maint":2881,"Capt":2882,"strong":2883,"tend":2884,"##rel":2885,"seven":2886,"repe":2887,"Rec":2888,"oper":2889,"deb":2890,"ell":2891,"##iry":2892,"##ized":2893,"Truth":2894,"gain":2895,"exh":2896,"Pur":2897,"judge":2898,"written":2899,"##iments":2900,"##ounded":2901,"Paul":2902,"pref":2903,"Ce":2904,"cru":2905,"##icle":2906,"plant":2907,"##inl":2908,"feel":2909,"attempt":2910,"dest":2911,"tender":2912,"TI":2913,"particularly":2914,"bless":2915,"##pecially":2916,"state":2917,"fes":2918,"Pres":2919,"purs":2920,"knowledge":2921,"##nes":2922,"act":2923,"bit":2924,"Hand":2925,"##ference":2926,"cold":2927,"situ":2928,"leur":2929,"charge":2930,"vers":2931,"certainly":2932,"bon":2933,"Arch":2934,"##aints":2935,"##aled":2936,"ber":2937,"##rer":2938,"##urt":2939,"offic":2940,"fly":2941,"Queen":2942,"Sea":2943,"enc":2944,"##arm":2945,"ul":2946,"##cience":2947,"##OM":2948,"George":2949,"Aug":2950,"farther":2951,"ré":2952,"##ji":2953,"sal":2954,"##nc":2955,"##irth":2956,"walk":2957,"Days":2958,"lr":2959,"lies":2960,"por":2961,"rid":2962,"##orrow":2963,"##reet":2964,"coll":2965,"##lef":2966,"##ped":2967,"observed":2968,"##ables":2969,"##icks":2970,"##eft":2971,"Writ":2972,"57":2973,"wicked":2974,"56":2975,"Script":2976,"55":2977,"authority":2978,"ld":2979,"Ire":2980,"Tre":2981,"family":2982,"OF":2983,"cit":2984,"##iddle":2985,"Ihe":2986,"##oe":2987,",)":2988,"granted":2989,"Honour":2990,"##iih":2991,"giving":2992,"woman":2993,"mur":2994,"cop":2995,"wood":2996,"##EC":2997,"rl":2998,"font":2999,"tc":3000,"Jer":3001,"formed":3002,"capt":3003,"##uses":3004,"vent":3005,"##ifon":3006,",~":3007,"home":3008,"##otion":3009,"bi":3010,"Mat":3011,"##den":3012,"##atus":3013,"##uct":3014,"ded":3015,"service":3016,"gone":3017,"whatever":3018,"Fort":3019,"sons":3020,"##ospel":3021,"judgment":3022,"##́e":3023,"quo":3024,"##gi":3025,"Cler":3026,"Tra":3027,"wonder":3028,"Tis":3029,"fen":3030,"ns":3031,"government":3032,"appeared":3033,"arc":3034,"Ser":3035,"Christian":3036,"Majesty":3037,"Blood":3038,"##nm":3039,"##iqu":3040,"North":3041,"##ilty":3042,"##rant":3043,"##utions":3044,"try":3045,"tal":3046,"Edward":3047,"ej":3048,"exerc":3049,"##rl":3050,"prot":3051,"##nl":3052,"##val":3053,"Sm":3054,"preach":3055,"lI":3056,"drawn":3057,"Ic":3058,"rest":3059,"##wi":3060,"i6":3061,"remark":3062,"aux":3063,"cry":3064,"langu":3065,"##hat":3066,"va":3067,"liberty":3068,"##rid":3069,"various":3070,"Pen":3071,"##reg":3072,"sole":3073,"Ord":3074,"##cer":3075,"Ele":3076,"expl":3077,"##ED":3078,"principal":3079,"fic":3080,"##ufl":3081,"else":3082,"##elve":3083,"lin":3084,"haft":3085,"lb":3086,"##mes":3087,"reb":3088,"##lies":3089,"lands":3090,"##ws":3091,"play":3092,"##cul":3093,"whence":3094,"'\"":3095,"teach":3096,"cast":3097,"ner":3098,"pap":3099,"bed":3100,"flow":3101,"river":3102,"##felf":3103,"black":3104,"##iis":3105,"##arce":3106,"~-":3107,"Ml":3108,"##iah":3109,"##----":3110,"pop":3111,"##IV":3112,"Way":3113,"##fh":3114,"benef":3115,"perce":3116,"##bat":3117,"Caf":3118,"cette":3119,"##igious":3120,"dom":3121,"##jo":3122,"qual":3123,"Egy":3124,"disc":3125,"appre":3126,"##fied":3127,"depart":3128,"Mag":3129,"Thing":3130,"success":3131,"recover":3132,"exceed":3133,"change":3134,"thence":3135,"##cribed":3136,"##ori":3137,"mother":3138,"Your":3139,"##abitants":3140,"##nr":3141,"59":3142,"##ING":3143,"##estion":3144,"bien":3145,"added":3146,"wherein":3147,"ihould":3148,"Sam":3149,"Rev":3150,"##ta":3151,"bey":3152,"qua":3153,"Europe":3154,"rife":3155,"especially":3156,"sac":3157,"PR":3158,"placed":3159,"Saviour":3160,"expe":3161,"voice":3162,"faire":3163,"Robert":3164,"Corn":3165,"hour":3166,"oft":3167,"unders":3168,"##itting":3169,"##ortion":3170,"##gl":3171,"##ifed":3172,".~":3173,"enemy":3174,"short":3175,"Oh":3176,"##peror":3177,"neigh":3178,"Israel":3179,"##usion":3180,"Sun":3181,"thine":3182,"Such":3183,"os":3184,"##unity":3185,"Ten":3186,"##iod":3187,"52":3188,"##jud":3189,"future":3190,"mark":3191,"acknow":3192,"build":3193,"bill":3194,"mad":3195,"Circ":3196,"quel":3197,"infin":3198,"Peter":3199,"became":3200,"##after":3201,"Richard":3202,"##cceed":3203,"##eous":3204,"fett":3205,"##usband":3206,"ST":3207,"##AC":3208,"70":3209,"##iri":3210,"field":3211,"living":3212,"infer":3213,"##fin":3214,"##ura":3215,"easily":3216,"proph":3217,"##,,":3218,"##con":3219,"##alm":3220,"##act":3221,"delivered":3222,"##̀s":3223,"64":3224,"remain":3225,"worth":3226,"fold":3227,"intended":3228,"##ardon":3229,"dre":3230,"60":3231,"##ads":3232,"tha":3233,"hou":3234,"quite":3235,"Mi":3236,"##ision":3237,"married":3238,"drink":3239,"Chrif":3240,"quam":3241,"Val":3242,"vill":3243,"hu":3244,"##pi":3245,"##lemen":3246,"sk":3247,"##ilk":3248,"tn":3249,"##ciety":3250,"dread":3251,"Order":3252,"High":3253,"hence":3254,"frequently":3255,"GOD":3256,"Pol":3257,"hould":3258,"##vert":3259,"Cro":3260,"##ito":3261,"ferv":3262,"##edy":3263,"##ifice":3264,"considerable":3265,"prim":3266,"##een":3267,"##ds":3268,";;":3269,"##ino":3270,"delight":3271,"##ption":3272,"eg":3273,"Cur":3274,"##nal":3275,"claim":3276,"##itation":3277,"along":3278,"prevail":3279,"lik":3280,"pleasure":3281,"pure":3282,"##lia":3283,"satis":3284,"nc":3285,"fuc":3286,"otherwise":3287,"##fled":3288,"dry":3289,"pow":3290,"##icious":3291,"tant":3292,"Occ":3293,"mir":3294,"diff":3295,"##omme":3296,"##inter":3297,"##gra":3298,"confirm":3299,"Res":3300,"produce":3301,"##TION":3302,"tf":3303,"ran":3304,"Virt":3305,"ftr":3306,"##unc":3307,"ring":3308,"til":3309,"##10":3310,"dri":3311,"##orts":3312,"lc":3313,"Enem":3314,"##ainted":3315,"##oth":3316,"66":3317,"cel":3318,"until":3319,"Dev":3320,"##aken":3321,"unless":3322,"thc":3323,"##ection":3324,"##bar":3325,"ways":3326,"##cted":3327,"worthy":3328,"##ishop":3329,"Upon":3330,"74":3331,"Sl":3332,"party":3333,"Money":3334,"condition":3335,"Es":3336,"##'.":3337,"##pir":3338,"lady":3339,"warm":3340,"63":3341,"Fir":3342,"confe":3343,"o0":3344,"flall":3345,"##ification":3346,"effe":3347,"hab":3348,"##ha":3349,"##fir":3350,"notice":3351,"divided":3352,"rend":3353,"ae":3354,"feed":3355,"##bly":3356,"##venant":3357,"moment":3358,"##inent":3359,"Ass":3360,"returned":3361,"morning":3362,"##erved":3363,"Egypt":3364,"##amb":3365,"ont":3366,"fou":3367,"Hum":3368,"77":3369,"talk":3370,"beyond":3371,"Jews":3372,"##uments":3373,"wild":3374,"fav":3375,"advantage":3376,"##TER":3377,"##akes":3378,"IS":3379,"Pap":3380,"mais":3381,"Lu":3382,"##eri":3383,"mouth":3384,"ton":3385,"##itable":3386,"Laws":3387,"##ining":3388,"##XX":3389,"IT":3390,"flood":3391,"learned":3392,"mercy":3393,"Letter":3394,"hot":3395,"ls":3396,"Tri":3397,"##athers":3398,"Mal":3399,"continue":3400,"chang":3401,"Red":3402,"##gh":3403,"##ibly":3404,"doing":3405,"##ifs":3406,"Med":3407,"ee":3408,"73":3409,"behold":3410,"pos":3411,"method":3412,"Tit":3413,"Light":3414,"##erce":3415,"##Ct":3416,"declared":3417,"room":3418,"tlhe":3419,"Stat":3420,"Bel":3421,"Germ":3422,"##iy":3423,"weight":3424,"##It":3425,"quid":3426,"##ode":3427,"false":3428,"-;":3429,"##hen":3430,"51":3431,"##alls":3432,"magn":3433,"eternal":3434,"tam":3435,"selves":3436,"built":3437,"succeed":3438,"miles":3439,"##isdom":3440,"##ouses":3441,"company":3442,"extrem":3443,"##iu":3444,"labour":3445,"##ister":3446,"lad":3447,"ignor":3448,"proportion":3449,"##ints":3450,"##aring":3451,"chap":3452,"imper":3453,"##fli":3454,"furn":3455,"##arum":3456,"##pro":3457,"Alex":3458,"quick":3459,"van":3460,"##fal":3461,"##amm":3462,"bread":3463,"required":3464,"Ven":3465,"##olog":3466,"##elle":3467,"comme":3468,"Don":3469,"##nce":3470,"Ihall":3471,"##asons":3472,"##ibi":3473,"fom":3474,"Paris":3475,"Ah":3476,"Care":3477,"secret":3478,"##itor":3479,"Britain":3480,"Fam":3481,"vari":3482,"Wife":3483,"/,":3484,"Fig":3485,"fruit":3486,"Spe":3487,"##ork":3488,"nations":3489,"1o":3490,"75":3491,"WV":3492,"fid":3493,"deal":3494,"##UM":3495,"corrupt":3496,"allowed":3497,"turned":3498,"Manner":3499,"##fed":3500,"Sch":3501,"grat":3502,"##hich":3503,"mid":3504,"yr":3505,"excellent":3506,"##iting":3507,"admir":3508,"observe":3509,"##lls":3510,"##cription":3511,"##atr":3512,"cd":3513,"dim":3514,"##atic":3515,"##quis":3516,"therein":3517,"ht":3518,"fad":3519,"71":3520,"becom":3521,"##aters":3522,"##uliar":3523,"##ators":3524,"##afl":3525,"efl":3526,"*.":3527,"fupp":3528,"firm":3529,"please":3530,"##aths":3531,"##fil":3532,"value":3533,"piece":3534,"##OU":3535,"easy":3536,"##ero":3537,"Princip":3538,"civil":3539,"Ann":3540,"produced":3541,"Wit":3542,"58":3543,"ordered":3544,"Term":3545,"##owed":3546,"truly":3547,"fully":3548,"##ao":3549,"publick":3550,"Sen":3551,"Pi":3552,"Er":3553,"##77":3554,"##igns":3555,"colour":3556,"69":3557,"ó":3558,"employed":3559,"sle":3560,"mel":3561,"main":3562,"----":3563,"Chri":3564,"equally":3565,"demand":3566,"sy":3567,"##aking":3568,"##omb":3569,"##irits":3570,"Heb":3571,"Vol":3572,"##eness":3573,"##TH":3574,"Arg":3575,"##ests":3576,"entirely":3577,"proof":3578,"Mor":3579,"reach":3580,"##LI":3581,"Scotland":3582,"cer":3583,"rule":3584,"ness":3585,"six":3586,"##ula":3587,"##ech":3588,"##fend":3589,"##lla":3590,"Thy":3591,"Ju":3592,"aud":3593,"##fd":3594,"burn":3595,"Pope":3596,"Offic":3597,"habit":3598,"depend":3599,"##bis":3600,"Air":3601,"##ante":3602,"##fion":3603,"##ofe":3604,"....":3605,"ln":3606,"yield":3607,"Eliz":3608,"##etr":3609,"proved":3610,"Tur":3611,"pt":3612,"trib":3613,"fn":3614,"!.":3615,"prefer":3616,"Mary":3617,"dwell":3618,"##aion":3619,"thick":3620,"Spain":3621,"South":3622,"forb":3623,"rent":3624,"##ois":3625,"##edience":3626,"##OS":3627,"separ":3628,"guard":3629,"##ected":3630,"Ireland":3631,"Just":3632,"tli":3633,"##erd":3634,"attended":3635,"jour":3636,"ban":3637,"sed":3638,"Crown":3639,"gard":3640,"Number":3641,"nr":3642,"bc":3643,"pit":3644,"##itive":3645,"pron":3646,"##utation":3647,"cy":3648,"leaves":3649,"guilty":3650,"##agement":3651,"suppose":3652,"##lication":3653,"introd":3654,"dign":3655,"ain":3656,"##ulation":3657,"Virg":3658,"quantity":3659,"sweet":3660,"bran":3661,"##pof":3662,"MI":3663,"applied":3664,"##oted":3665,"##ico":3666,"trade":3667,"##oli":3668,"Children":3669,"andl":3670,"takes":3671,"Bur":3672,"##ieu":3673,"ny":3674,"thereby":3675,"Pal":3676,"##bles":3677,"Hands":3678,"fiom":3679,"##aux":3680,"##idge":3681,"!-":3682,"TO":3683,"glo":3684,"##ser":3685,"##embers":3686,"accom":3687,"entert":3688,"lived":3689,"enemies":3690,"conven":3691,"plan":3692,"fortune":3693,"Def":3694,"Authority":3695,"##ission":3696,"67":3697,"fim":3698,"##toit":3699,"liv":3700,"##ists":3701,"move":3702,"comfort":3703,"glorious":3704,"vit":3705,"motion":3706,"65":3707,"cra":3708,"sum":3709,"content":3710,"beginning":3711,"##VI":3712,"##ole":3713,"##urity":3714,"fb":3715,"·,":3716,"##ongue":3717,"eld":3718,"ide":3719,"##̂tre":3720,"fond":3721,"##igne":3722,"##pport":3723,"##iffe":3724,"fubje":3725,"county":3726,"Ve":3727,"touch":3728,"ration":3729,"##pic":3730,"nu":3731,"capable":3732,"-~":3733,"##ifer":3734,"Night":3735,"Sat":3736,"absol":3737,"Work":3738,"cele":3739,"##zz":3740,"willing":3741,"nar":3742,"tom":3743,"72":3744,"##aud":3745,"Ter":3746,"Ill":3747,"eti":3748,"committed":3749,"##RI":3750,"##pped":3751,"prison":3752,"##uence":3753,"176":3754,"##ession":3755,"##Jf":3756,"##cel":3757,"Creat":3758,"charac":3759,"76":3760,"Tro":3761,"##uls":3762,"Duty":3763,"68":3764,"##pond":3765,"##lind":3766,"Amer":3767,"comple":3768,"##iding":3769,"##hr":3770,"##orough":3771,"##uer":3772,"##icate":3773,"##upon":3774,"Ox":3775,"##tee":3776,"Clo":3777,"trad":3778,"##ENT":3779,"Ecc":3780,"Ly":3781,"fate":3782,"##jf":3783,"anld":3784,"peculiar":3785,"hav":3786,"Know":3787,"Age":3788,"tI":3789,"Vo":3790,"office":3791,"natur":3792,"twelve":3793,"Latin":3794,"Ti":3795,"title":3796,"##afi":3797,"Sk":3798,"pros":3799,"alth":3800,"Whe":3801,"##aintiff":3802,"##---":3803,"##ellow":3804,"English":3805,"destroy":3806,"Kn":3807,"bene":3808,"glad":3809,"phil":3810,".·":3811,"taught":3812,"##uits":3813,"Bu":3814,"##itate":3815,"Ret":3816,"I6":3817,"MA":3818,"parliament":3819,"##ism":3820,"##bn":3821,"##enc":3822,"Cath":3823,"ix":3824,"fet":3825,"Friend":3826,"firit":3827,"Ie":3828,"##oni":3829,"Government":3830,"##ash":3831,"##ancy":3832,"ml":3833,"Luc":3834,"nos":3835,"tempt":3836,"close":3837,"##imus":3838,"Use":3839,"##olution":3840,"mê":3841,"arch":3842,"##ifts":3843,"confl":3844,"##aved":3845,"scarce":3846,"Council":3847,"##IR":3848,"mix":3849,"##bled":3850,"ij":3851,"happen":3852,"utter":3853,"##order":3854,"lives":3855,"notwith":3856,"AR":3857,"island":3858,"gi":3859,"cafes":3860,"besides":3861,"Two":3862,"##acle":3863,"##alem":3864,"79":3865,"Sim":3866,"##cu":3867,"reven":3868,"univers":3869,"##emed":3870,"178":3871,"ture":3872,"Vi":3873,"blo":3874,"tum":3875,"I7":3876,"ask":3877,"##atum":3878,"hers":3879,"##aa":3880,"remember":3881,"##tood":3882,"##́s":3883,"Second":3884,"avoit":3885,"##ulty":3886,"repro":3887,"top":3888,"##edd":3889,"greatly":3890,"Cam":3891,"Ii":3892,"##wor":3893,"Glory":3894,"99":3895,"Ath":3896,"177":3897,"Apo":3898,"I1":3899,"remo":3900,"oil":3901,"faying":3902,"##ication":3903,"Dut":3904,"##ias":3905,"ah":3906,"Pub":3907,"##pire":3908,"praise":3909,"wait":3910,"lor":3911,"ting":3912,"iss":3913,"conver":3914,"fpe":3915,"&,":3916,"confidered":3917,"Jac":3918,"lf":3919,"1i":3920,"##inn":3921,"##aste":3922,"Exp":3923,"##vell":3924,"##gu":3925,"Company":3926,"Dem":3927,"vig":3928,"##ral":3929,"Sil":3930,"fixed":3931,"Tho":3932,"##gg":3933,"endeavour":3934,"agreeable":3935,"lhall":3936,"##lv":3937,"Nation":3938,"supposed":3939,"thoughts":3940,"foreign":3941,"Royal":3942,"HE":3943,"attention":3944,"formerly":3945,"March":3946,"fw":3947,"##tead":3948,"~'":3949,"suffer":3950,"##:.":3951,"hoc":3952,"difficult":3953,"##ecr":3954,"Well":3955,"cat":3956,"##under":3957,"##iling":3958,"##ofi":3959,"##ague":3960,"mill":3961,"Common":3962,"early":3963,"write":3964,"Read":3965,"Old":3966,"##refs":3967,"Service":3968,"tous":3969,"Apr":3970,"fellow":3971,"Ihould":3972,"something":3973,"really":3974,"##dden":3975,"Wr":3976,"cruel":3977,"heir":3978,"stand":3979,"##fie":3980,"dam":3981,"##ira":3982,"##igence":3983,"original":3984,"##thren":3985,"##osing":3986,"mighty":3987,"##ipe":3988,"##cher":3989,"tree":3990,"rit":3991,"raised":3992,"##urd":3993,"##........":3994,"##anced":3995,"sup":3996,"horse":3997,"RE":3998,"flould":3999,"excl":4000,"tain":4001,"refer":4002,"press":4003,"Cause":4004,"Come":4005,"agreed":4006,"fins":4007,"61":4008,"thre":4009,"bold":4010,"fatis":4011,"##eral":4012,"entered":4013,"ov":4014,"beaut":4015,"sacr":4016,"save":4017,"##ored":4018,"##ories":4019,"rm":4020,"xv":4021,"wine":4022,"Sense":4023,"past":4024,"##ordinary":4025,"cler":4026,"Fire":4027,"##ftru":4028,"ourselves":4029,"vir":4030,"Add":4031,"##mber":4032,"temper":4033,"temp":4034,"Franc":4035,"##ora":4036,"feeing":4037,"mankind":4038,"##ik":4039,"Bill":4040,"Lands":4041,"approach":4042,"78":4043,"hither":4044,"##get":4045,"squ":4046,"Mart":4047,"hearts":4048,"bell":4049,"bt":4050,"women":4051,"sacred":4052,"##ige":4053,"esc":4054,"##fol":4055,"##eck":4056,"fs":4057,"Hy":4058,"youth":4059,"Hi":4060,"##ffi":4061,"Kings":4062,"hopes":4063,"AM":4064,"soft":4065,"##here":4066,"##ques":4067,"##bling":4068,"##44":4069,"thirty":4070,"goods":4071,"principles":4072,"perm":4073,"daily":4074,"seek":4075,"62":4076,"purch":4077,"Kind":4078,"raise":4079,"wrong":4080,"whereof":4081,"gar":4082,"obtained":4083,"sa":4084,"passed":4085,"cult":4086,"bott":4087,"diss":4088,"gall":4089,"covered":4090,"DE":4091,"wrote":4092,"Sacr":4093,"obey":4094,"behind":4095,"##iev":4096,"##stances":4097,"##erous":4098,"Sax":4099,"apply":4100,"heat":4101,"Domin":4102,"vid":4103,"##udes":4104,"pré":4105,"##asures":4106,"Sto":4107,"mr":4108,"Places":4109,"Divine":4110,"throw":4111,"pou":4112,"Cent":4113,"cert":4114,"provided":4115,"violent":4116,"##igned":4117,"Jan":4118,"##wr":4119,"##lit":4120,"Exam":4121,"Mem":4122,"founded":4123,"ift":4124,"!,":4125,"encour":4126,"··":4127,"amb":4128,"-·":4129,"middle":4130,"##ements":4131,"AL":4132,"felt":4133,"##ocks":4134,"hours":4135,"wou":4136,"deny":4137,"terms":4138,"mat":4139,"innoc":4140,"fans":4141,"strength":4142,"bow":4143,"##ims":4144,"lon":4145,"##chant":4146,"##13":4147,"Ber":4148,"##afon":4149,"##day":4150,"##icated":4151,"pounds":4152,"hich":4153,"Bra":4154,"table":4155,"knows":4156,"oth":4157,"appearance":4158,"##rie":4159,"apt":4160,"rob":4161,"##CH":4162,"##inis":4163,"County":4164,"inhabitants":4165,"slate":4166,"##uing":4167,"Point":4168,"·.":4169,"##rm":4170,"domin":4171,"Che":4172,"##angers":4173,"whil":4174,"inqu":4175,"173":4176,"##imony":4177,"commonly":4178,"refle":4179,"Proph":4180,"ds":4181,"jam":4182,"ofthe":4183,"divers":4184,"CO":4185,"##inity":4186,"Adm":4187,"ire":4188,"faithful":4189,"##fler":4190,"While":4191,"happiness":4192,"Sept":4193,"Eyes":4194,"'~":4195,"trem":4196,"Ci":4197,"bodies":4198,"##lb":4199,"Side":4200,"uf":4201,"beat":4202,"##umph":4203,"pleased":4204,"##stance":4205,"##rac":4206,"mus":4207,"desp":4208,"letters":4209,"Therefore":4210,"obtain":4211,"mul":4212,"merc":4213,"##imo":4214,"HI":4215,"feat":4216,"##nn":4217,"green":4218,"perpet":4219,"##aments":4220,"seemed":4221,"##uis":4222,"Friends":4223,"##ases":4224,"attack":4225,"zeal":4226,"Cre":4227,"ff":4228,"##ades":4229,"##ustom":4230,"Ye":4231,"##unes":4232,"ones":4233,"period":4234,"commanded":4235,"##ieve":4236,"lhe":4237,"opport":4238,"td":4239,"##bted":4240,"Den":4241,"##ems":4242,"dt":4243,"##ima":4244,"##irl":4245,"lower":4246,"##tingu":4247,"offered":4248,"00":4249,"##hed":4250,"##iit":4251,"hist":4252,"##fis":4253,"##iring":4254,"Non":4255,"oc":4256,"Deg":4257,"vice":4258,"\".":4259,"language":4260,"recomme":4261,"Fle":4262,"dischar":4263,"Being":4264,"Arms":4265,"##uel":4266,"##eme":4267,"Judgment":4268,"negle":4269,"troops":4270,"humble":4271,"##amber":4272,"ral":4273,"fm":4274,"##lement":4275,"breath":4276,"probably":4277,"##ldiers":4278,"ions":4279,"royal":4280,"Opinion":4281,"##fling":4282,"fing":4283,"172":4284,"spread":4285,"enqu":4286,"##oles":4287,"convey":4288,"##17":4289,"poet":4290,"incon":4291,"ss":4292,"hin":4293,"Are":4294,"##CC":4295,"##cles":4296,"flat":4297,"Virtue":4298,"duke":4299,"##enance":4300,"regular":4301,"loss":4302,"dir":4303,"hr":4304,"##ifter":4305,"##lefs":4306,"##hl":4307,"Exec":4308,"##road":4309,"(.":4310,"##most":4311,"ome":4312,"mull":4313,"##tians":4314,"fought":4315,"yo":4316,"##oken":4317,"pieces":4318,"##ano":4319,"175":4320,",·":4321,"##feit":4322,"Ext":4323,"ich":4324,"Thought":4325,"beauty":4326,"##asts":4327,"sudden":4328,"Captain":4329,"properly":4330,"dur":4331,"Enter":4332,"##raid":4333,"##course":4334,"require":4335,"##hend":4336,"exped":4337,"mater":4338,"##ulg":4339,"sn":4340,"##ights":4341,"fourth":4342,"situation":4343,"Ha":4344,"evident":4345,"##inate":4346,"##ente":4347,"orders":4348,"##OT":4349,"mere":4350,"cs":4351,"consequence":4352,"##bed":4353,"determined":4354,"resolved":4355,"rig":4356,"below":4357,"measure":4358,"gather":4359,"##fte":4360,"##UL":4361,"Ground":4362,"Cop":4363,"declare":4364,"double":4365,"Gall":4366,"Sic":4367,"##14":4368,"prud":4369,"##xi":4370,"business":4371,"Les":4372,"Cic":4373,"dangerous":4374,"desired":4375,"##eless":4376,"##osoph":4377,"##quam":4378,"parent":4379,"##bury":4380,"##vr":4381,"!'":4382,"##ione":4383,"##etting":4384,"produc":4385,"93":4386,"rever":4387,"pretty":4388,"Mis":4389,"Cy":4390,"cha":4391,"answered":4392,"poff":4393,"##IA":4394,"funt":4395,"expre":4396,"calls":4397,"ward":4398,"eu":4399,"##illing":4400,"preced":4401,"Pie":4402,"Cat":4403,"pul":4404,"wil":4405,"chiefly":4406,"##jl":4407,"flo":4408,"question":4409,"Au":4410,"susser":4411,"whereby":4412,"trouble":4413,"north":4414,"persu":4415,"vic":4416,"lent":4417,"Wind":4418,"fake":4419,"?-":4420,"avoid":4421,"hen":4422,"Ship":4423,"##fw":4424,"lil":4425,"loc":4426,"##aker":4427,"lod":4428,"Dep":4429,"##cef":4430,"gentleman":4431,"ui":4432,"##raw":4433,"##what":4434,"##ifes":4435,"##aed":4436,"righteous":4437,"endeav":4438,"ste":4439,"Ty":4440,"possible":4441,"hang":4442,"followed":4443,"//":4444,"andi":4445,".!":4446,"Gold":4447,"##Il":4448,"againit":4449,"door":4450,"##lli":4451,"##acity":4452,"##ó":4453,"Gospel":4454,"##ferv":4455,"dig":4456,"Letters":4457,"ani":4458,"pardon":4459,"##inus":4460,"wret":4461,"##pit":4462,"ore":4463,"represent":4464,"174":4465,"Bea":4466,"##era":4467,"Army":4468,"wl":4469,"ail":4470,"./":4471,"watch":4472,"month":4473,"whereas":4474,"##hy":4475,"gentle":4476,"##ifies":4477,"Supp":4478,"polit":4479,"Bed":4480,"lately":4481,"##appy":4482,"merit":4483,"Nat":4484,"ling":4485,"mif":4486,"##do":4487,"##hood":4488,"ili":4489,"VII":4490,"powers":4491,"ruin":4492,"underst":4493,"##crs":4494,"test":4495,"paf":4496,"('":4497,"##erable":4498,"accomp":4499,"179":4500,"admitted":4501,"board":4502,"Foot":4503,"mour":4504,"liqu":4505,"dont":4506,"cure":4507,"##pa":4508,"##ighty":4509,"##fel":4510,"SC":4511,"usual":4512,"etiam":4513,"Sed":4514,"months":4515,"Scripture":4516,"milit":4517,"obje":4518,"neighbour":4519,"Form":4520,"herself":4521,"CHAP":4522,"forty":4523,"Did":4524,"##atience":4525,"jo":4526,"perfe":4527,"superior":4528,"reck":4529,"##car":4530,"##ffed":4531,"iu":4532,"lif":4533,"##imate":4534,"eo":4535,"##EM":4536,"auth":4537,"oun":4538,"throne":4539,"##fes":4540,"affe":4541,"##enti":4542,"joined":4543,"pretend":4544,"servant":4545,"wish":4546,"celebr":4547,"##str":4548,"##cb":4549,"bright":4550,"##icr":4551,"Though":4552,"extraordinary":4553,"97":4554,"##jt":4555,"dise":4556,"looked":4557,"ped":4558,"Dutch":4559,"single":4560,"trees":4561,"##icl":4562,"firong":4563,"aur":4564,"##cribe":4565,"##aying":4566,"Dan":4567,"Prot":4568,"Leg":4569,"##alty":4570,"nine":4571,"amount":4572,"Gal":4573,"dare":4574,"94":4575,"hill":4576,"96":4577,"Yes":4578,"conj":4579,"##12":4580,"Mark":4581,"##gress":4582,"follows":4583,"##vcr":4584,"nay":4585,"April":4586,"ét":4587,"##ults":4588,"anid":4589,"credit":4590,"##face":4591,"##::":4592,"ers":4593,"health":4594,"##ifli":4595,"San":4596,"IM":4597,"##ensive":4598,"##idi":4599,"trust":4600,"frequent":4601,"##ager":4602,"recon":4603,"goes":4604,"oh":4605,"happened":4606,"broken":4607,"fI":4608,"idea":4609,"##uss":4610,"belonging":4611,"Wood":4612,"filled":4613,"example":4614,"ments":4615,"ice":4616,"##erted":4617,"reco":4618,"##16":4619,"##ested":4620,"vou":4621,"plainly":4622,"Thr":4623,"unh":4624,"tells":4625,"lan":4626,"lift":4627,"##vereign":4628,"##19":4629,"kings":4630,"aa":4631,"##rab":4632,"##ceff":4633,"tyr":4634,"Force":4635,"Treat":4636,"thole":4637,"##umb":4638,"rad":4639,"afford":4640,"solemn":4641,"##soever":4642,"##arily":4643,"##old":4644,"##wv":4645,"##000":4646,"##ival":4647,"Take":4648,"peu":4649,"170":4650,"même":4651,"Shall":4652,"Office":4653,"battle":4654,"~~~":4655,"anl":4656,"##itus":4657,"##acles":4658,"##ye":4659,"Goods":4660,"XV":4661,"iS":4662,"tir":4663,"##antages":4664,"wholly":4665,"ga":4666,"##né":4667,"Perf":4668,"pride":4669,"##arp":4670,"Mac":4671,"##orses":4672,"Times":4673,"##eni":4674,"##RA":4675,"arrived":4676,"master":4677,"Brother":4678,"June":4679,"lawful":4680,"writing":4681,"##uns":4682,"Fore":4683,"mist":4684,"##oned":4685,"religious":4686,"##udy":4687,"sinc":4688,"##nde":4689,"Method":4690,"Equ":4691,"contained":4692,"##arts":4693,"##erate":4694,"jur":4695,"ons":4696,"cir":4697,"flu":4698,"avoir":4699,"##burg":4700,"&.":4701,"##',":4702,"Emperor":4703,"rer":4704,"##tn":4705,"err":4706,"names":4707,"Ai":4708,"evidence":4709,"subs":4710,"83":4711,"Ru":4712,"##aine":4713,"cam":4714,"Eff":4715,"husband":4716,"##llo":4717,"grave":4718,"SI":4719,"Greek":4720,"##wed":4721,"mand":4722,"##za":4723,"nav":4724,"fool":4725,"Weft":4726,"Liberty":4727,"AND":4728,"ini":4729,"##gin":4730,"##uo":4731,"leurs":4732,"Imp":4733,"##iefs":4734,"Colle":4735,"##aked":4736,"90":4737,"80":4738,"height":4739,"95":4740,"Mod":4741,"##anl":4742,"report":4743,"fatal":4744,"threat":4745,"Tl":4746,"##IST":4747,"84":4748,"naturally":4749,"enim":4750,"intell":4751,"alto":4752,"##15":4753,"VOL":4754,"Pop":4755,"##xes":4756,"cand":4757,"##omn":4758,"##alous":4759,"sensible":4760,"difference":4761,"Hist":4762,"Bec":4763,"##aph":4764,"Lear":4765,"ens":4766,"##dy":4767,"##avit":4768,"##kes":4769,"highly":4770,"mit":4771,"##ension":4772,"##ré":4773,"Those":4774,"earl":4775,"vot":4776,"##utely":4777,"##omm":4778,"##iae":4779,"Conc":4780,"##uts":4781,"Feb":4782,"remains":4783,"fever":4784,"march":4785,"LI":4786,"reduced":4787,"mil":4788,"##iet":4789,"##ials":4790,"useful":4791,"##abeth":4792,"debt":4793,"saf":4794,"Ans":4795,"Sent":4796,"reward":4797,"##ara":4798,"Sign":4799,"council":4800,"fides":4801,"fcr":4802,"##king":4803,"ditto":4804,"Line":4805,"##itance":4806,"prem":4807,"convers":4808,"Means":4809,"acquainted":4810,"admit":4811,"##right":4812,"##ana":4813,"##jed":4814,"##iant":4815,"##xed":4816,"##come":4817,"patient":4818,"July":4819,"##dl":4820,"voy":4821,"forced":4822,"justice":4823,"ait":4824,"##ishment":4825,"bare":4826,"accordingly":4827,"##iflion":4828,"property":4829,"##UT":4830,"fab":4831,"Page":4832,"execution":4833,"fent":4834,"queen":4835,"secure":4836,"afraid":4837,"Romans":4838,"Est":4839,"##cet":4840,"##osen":4841,"Bell":4842,"tranf":4843,"ps":4844,"SE":4845,"##99":4846,"prepared":4847,"abroad":4848,"##iffer":4849,"Gods":4850,"tears":4851,"although":4852,"##bre":4853,"Rh":4854,"##cle":4855,"itr":4856,"minds":4857,"Na":4858,"becomes":4859,"tll":4860,"Lie":4861,"rank":4862,"removed":4863,"books":4864,"perfect":4865,"##itled":4866,"clean":4867,"vii":4868,"IL":4869,"figure":4870,"doc":4871,"Ta":4872,"XI":4873,"Joy":4874,"moral":4875,"##oln":4876,"remarkable":4877,"pla":4878,"iron":4879,"appoint":4880,"Four":4881,"commit":4882,"prepar":4883,"VIII":4884,"beautiful":4885,"##jus":4886,"##ga":4887,"famous":4888,"LE":4889,"wisdom":4890,"##mp":4891,"tlh":4892,"##hib":4893,"colle":4894,"Works":4895,"maintain":4896,"86":4897,"sick":4898,"finding":4899,"##atory":4900,"##iner":4901,"Hence":4902,"##Ce":4903,"tent":4904,"##orem":4905,"##ete":4906,"orn":4907,"contrib":4908,"##ola":4909,"Coll":4910,"xi":4911,"marriage":4912,"belt":4913,"##rh":4914,"ile":4915,"Nay":4916,"##inu":4917,"Ps":4918,"##ifd":4919,"ordinary":4920,"Far":4921,"forward":4922,",/":4923,"Even":4924,"affairs":4925,"##ilhed":4926,"judg":4927,"degrees":4928,"officers":4929,"autre":4930,"zo":4931,"##ipt":4932,"Italy":4933,"rum":4934,"tic":4935,"difl":4936,"depri":4937,"##istance":4938,"##ayed":4939,"meant":4940,"cloud":4941,"Every":4942,"##oft":4943,"##ST":4944,"##isc":4945,"Inde":4946,"exceeding":4947,"##isters":4948,"estate":4949,"##tery":4950,"AC":4951,"ON":4952,"bef":4953,"finall":4954,"fJ":4955,"##cent":4956,"engaged":4957,"intr":4958,"##isions":4959,"named":4960,"deux":4961,"Hel":4962,"##oes":4963,"##oa":4964,"##itl":4965,"tlie":4966,"hc":4967,"##33":4968,"bapt":4969,"conclude":4970,"##onies":4971,"##irn":4972,"flight":4973,"note":4974,"Madam":4975,"broad":4976,"informed":4977,"hardly":4978,"dies":4979,"united":4980,"##uten":4981,"compre":4982,"##ando":4983,"improve":4984,"##erves":4985,"invent":4986,"lose":4987,"arise":4988,"##ressed":4989,"Dece":4990,"influence":4991,"Princes":4992,"important":4993,"prejud":4994,"/'":4995,"infinite":4996,"Pay":4997,"être":4998,"repent":4999,"AB":5000,"cot":5001,"##asions":5002,"##antur":5003,"species":5004,"speaking":5005,"fign":5006,"Long":5007,"Orig":5008,"##atem":5009,"rap":5010,"89":5011,"I2":5012,"ris":5013,"##inions":5014,"Prayer":5015,"##bra":5016,"hie":5017,"92":5018,"ance":5019,"##AB":5020,"lot":5021,"Pow":5022,"amongst":5023,"87":5024,"##odd":5025,"##inth":5026,"void":5027,"cloth":5028,"Arm":5029,"##CE":5030,"Gh":5031,"served":5032,"Moses":5033,"##aret":5034,"opened":5035,"##ei":5036,"##empl":5037,"##llor":5038,"plaintiff":5039,"possess":5040,"believed":5041,"##fti":5042,"moved":5043,"##yl":5044,"aim":5045,"Dit":5046,"juf":5047,"##flions":5048,"Circum":5049,"forts":5050,"manif":5051,"Tim":5052,"##uti":5053,"proposed":5054,"origin":5055,"necefl":5056,"food":5057,"##olence":5058,"profe":5059,"aI":5060,"servants":5061,"##atu":5062,"imagine":5063,"cross":5064,"aj":5065,"declar":5066,"neat":5067,"##etur":5068,"##66":5069,"matters":5070,"consequently":5071,"Purp":5072,"étoit":5073,"fuper":5074,"fouls":5075,"rate":5076,"promise":5077,"cell":5078,"defence":5079,"fifty":5080,"##eldom":5081,"Ga":5082,"##inr":5083,"triumph":5084,"eleg":5085,"##over":5086,"comb":5087,"effec":5088,"Party":5089,"treated":5090,"bid":5091,"##icit":5092,"sion":5093,"charged":5094,"##OP":5095,"liable":5096,"However":5097,"fll":5098,"convinc":5099,"Alm":5100,"affirm":5101,"reve":5102,"##fpe":5103,"won":5104,"iz":5105,"##bel":5106,"Gard":5107,"ame":5108,"fettled":5109,"Him":5110,"principle":5111,"whi":5112,"lis":5113,"vess":5114,"Command":5115,"created":5116,"witness":5117,"##ilar":5118,"fled":5119,"##omy":5120,"unl":5121,"covenant":5122,"##-.":5123,"##uting":5124,"iy":5125,"rot":5126,"##cing":5127,"##Ie":5128,"Ide":5129,"##way":5130,"ita":5131,"Lab":5132,"##pping":5133,"camp":5134,"~·":5135,"##ulous":5136,"##ida":5137,"plea":5138,"undert":5139,"pan":5140,"gracious":5141,"##ilies":5142,"Philip":5143,"fd":5144,"88":5145,"Infl":5146,"sooner":5147,"bond":5148,"**":5149,"Apost":5150,"Gentleman":5151,"rendered":5152,"tongue":5153,"##amed":5154,"houses":5155,"I5":5156,"preserve":5157,"ous":5158,"##ump":5159,"Us":5160,"Sr":5161,"distance":5162,"##uni":5163,"Note":5164,"Prom":5165,"##rag":5166,"effect":5167,"ate":5168,"chosen":5169,"ws":5170,"##vis":5171,"quiet":5172,"discip":5173,"##ening":5174,"nearly":5175,"rejo":5176,"birth":5177,"##ifying":5178,"salt":5179,"*,":5180,"98":5181,"##igent":5182,"pract":5183,"replied":5184,"##eg":5185,"corre":5186,"burnt":5187,"Trade":5188,"##fle":5189,"utmost":5190,"Met":5191,"Por":5192,"nit":5193,"oppos":5194,"##lor":5195,"higher":5196,"hol":5197,"rat":5198,"Pass":5199,"prel":5200,"##aire":5201,"parties":5202,"ties":5203,"advanced":5204,"##abb":5205,"privile":5206,"Was":5207,"knowing":5208,"Ham":5209,"ue":5210,"abund":5211,"##ishing":5212,"##oti":5213,"?.":5214,"defendant":5215,"tail":5216,"rage":5217,"##urer":5218,"ess":5219,"Souls":5220,"##oll":5221,"Cle":5222,"##aling":5223,"##ush":5224,"##ainder":5225,"·-":5226,"tihe":5227,"quarter":5228,"Heav":5229,"empire":5230,"performed":5231,"85":5232,"000":5233,"Miss":5234,"##erit":5235,"earn":5236,"autres":5237,"?\"":5238,"##Ji":5239,"##fty":5240,"##iln":5241,"Civ":5242,"Engli":5243,"bal":5244,"arid":5245,"##acon":5246,"Inc":5247,"blind":5248,"##iously":5249,"Woman":5250,"elt":5251,"extend":5252,"conn":5253,"0o":5254,"multip":5255,"Rule":5256,"impr":5257,"##acc":5258,"##Te":5259,"(,":5260,"ive":5261,"broke":5262,"CL":5263,"killed":5264,"ao":5265,"Wi":5266,"##efly":5267,"##ifie":5268,"Had":5269,"##pol":5270,"1I":5271,"##rf":5272,"##ihi":5273,"freed":5274,"Sins":5275,"##18":5276,"##rine":5277,"Hol":5278,"##utor":5279,"ler":5280,"muf":5281,"conl":5282,"max":5283,"pronoun":5284,"Ent":5285,"##ros":5286,"hereafter":5287,"temple":5288,"##ght":5289,"##eremon":5290,"wid":5291,"Condition":5292,"thrown":5293,"Hom":5294,"ced":5295,"accord":5296,"las":5297,"repeated":5298,"##lion":5299,"suit":5300,"animal":5301,"America":5302,"Poet":5303,"Reign":5304,"##ysic":5305,"##AD":5306,"pains":5307,"mol":5308,"##nding":5309,"fiall":5310,"Err":5311,"Ital":5312,"##ively":5313,"extremely":5314,"~:":5315,"rous":5316,"##uary":5317,"proud":5318,"sear":5319,"##hould":5320,"narrow":5321,"courage":5322,"discovered":5323,"whatsoever":5324,"Its":5325,"##aria":5326,"fib":5327,"Elizabeth":5328,"nour":5329,"Another":5330,"medic":5331,"leaf":5332,"prayer":5333,"pretended":5334,"deed":5335,"##ifhed":5336,"Ut":5337,"Obs":5338,"Mir":5339,"'/":5340,"gy":5341,"Ins":5342,"highest":5343,"vw":5344,"##rible":5345,"Knowledge":5346,"##ena":5347,"waters":5348,"ages":5349,"attach":5350,"voc":5351,"rea":5352,"##ker":5353,"seldom":5354,"tempor":5355,"race":5356,"Squ":5357,"dying":5358,"fliall":5359,"sleep":5360,"wall":5361,"autem":5362,"whl":5363,"##lands":5364,"male":5365,"Admir":5366,"murder":5367,"spring":5368,"##inefs":5369,"##fent":5370,"apud":5371,"objec":5372,"##otes":5373,"Benef":5374,"##rat":5375,"contain":5376,"Roi":5377,"Card":5378,"##anks":5379,"Family":5380,"bh":5381,"thank":5382,"Interest":5383,"##eb":5384,"EN":5385,"##ieux":5386,"!:":5387,"conquer":5388,"##illed":5389,"##imn":5390,"hereby":5391,"##jh":5392,"##ESS":5393,"heads":5394,"whilst":5395,"spiritual":5396,"medi":5397,"##75":5398,";\"":5399,"ignorant":5400,"##vc":5401,"paper":5402,"embra":5403,"##lie":5404,"##eli":5405,"XXX":5406,"##Is":5407,"##lend":5408,"##nf":5409,"Amb":5410,"##oient":5411,"post":5412,"exhib":5413,"meaning":5414,"cet":5415,"~;":5416,"ano":5417,"condu":5418,"powerful":5419,"##bh":5420,"Favour":5421,"flatter":5422,"oe":5423,"##20":5424,"bird":5425,"bottom":5426,"rul":5427,"contempt":5428,"##unk":5429,"opportunity":5430,"choice":5431,"Daughter":5432,"Mount":5433,"##etion":5434,"numerous":5435,"##llt":5436,"moi":5437,"terr":5438,"##ughters":5439,"##oir":5440,"##rance":5441,"##lible":5442,"##isted":5443,"stat":5444,"tht":5445,"Rob":5446,"cried":5447,"heavy":5448,"spoken":5449,"##vit":5450,"##icy":5451,"##orous":5452,"Prop":5453,"este":5454,"Ibid":5455,"blessed":5456,"IX":5457,"acknowled":5458,"Hou":5459,"supply":5460,"Christians":5461,"##ila":5462,"princes":5463,"##AND":5464,"confi":5465,"sand":5466,"hate":5467,"price":5468,"iin":5469,"Three":5470,"sorrow":5471,"ation":5472,"wn":5473,"faint":5474,"inher":5475,"Cha":5476,"nom":5477,"Sher":5478,"marry":5479,"##Rt":5480,"arts":5481,"Dire":5482,"##Je":5483,"leaving":5484,"spoke":5485,"I3":5486,"Gar":5487,"null":5488,"vul":5489,"lion":5490,"cher":5491,"adop":5492,"##pes":5493,"Commons":5494,"increase":5495,"##pent":5496,"ago":5497,"##bor":5498,"##̀re":5499,"drew":5500,"##aped":5501,"##embly":5502,"grad":5503,"lying":5504,"sic":5505,"consideration":5506,":!":5507,"rare":5508,"Spec":5509,"peut":5510,"##illes":5511,"pity":5512,"##ilis":5513,"Mort":5514,"tih":5515,"##du":5516,"##ilton":5517,"Six":5518,"record":5519,"exercise":5520,"##mm":5521,"root":5522,"instead":5523,"upper":5524,"relation":5525,"##eem":5526,"Society":5527,"##atre":5528,"dreadful":5529,"##standing":5530,"##olved":5531,"##,.":5532,"##ilc":5533,"effet":5534,"ik":5535,"##urb":5536,"Mercy":5537,"probable":5538,"maid":5539,"hurt":5540,"nn":5541,"tome":5542,"##itis":5543,"ife":5544,"Cred":5545,"##40":5546,"modern":5547,"##lling":5548,"Grand":5549,"portion":5550,"##ship":5551,"propri":5552,"##sel":5553,"##chool":5554,"din":5555,"establ":5556,"fron":5557,"experience":5558,"##aj":5559,"##son":5560,"States":5561,"trial":5562,"ure":5563,"##enes":5564,"169":5565,"Ct":5566,"River":5567,"##lio":5568,"##his":5569,"##onel":5570,"##veral":5571,"uns":5572,"liter":5573,"##iber":5574,"##fts":5575,"##ftion":5576,"Bapt":5577,"educ":5578,"##70":5579,"bor":5580,"AS":5581,"##eep":5582,"##unate":5583,"##fac":5584,"##uv":5585,"##ability":5586,"acquaint":5587,"##ffion":5588,"##gre":5589,"##lm":5590,"admin":5591,"##resh":5592,"##pect":5593,"inferior":5594,"entertain":5595,"pall":5596,"Diff":5597,"##rum":5598,"##agues":5599,"duties":5600,"pear":5601,"hung":5602,"rub":5603,"renew":5604,"points":5605,"brave":5606,"##rious":5607,"worse":5608,"##lland":5609,"hal":5610,"Quant":5611,"hic":5612,"article":5613,"cul":5614,"Abra":5615,"##49":5616,"aliqu":5617,"##wixt":5618,"Mother":5619,"wards":5620,"poffe":5621,"Enemy":5622,"JO":5623,"Gentlemen":5624,"condem":5625,"plead":5626,"##igation":5627,"##rog":5628,"thef":5629,"Again":5630,"York":5631,"Eye":5632,"##ority":5633,"Mont":5634,"native":5635,"remove":5636,"rom":5637,"confess":5638,"twice":5639,"numbers":5640,"object":5641,"##arc":5642,"Wo":5643,"##ilf":5644,"##owing":5645,"safe":5646,"wer":5647,"forces":5648,"CON":5649,"Answer":5650,"##enr":5651,"Bes":5652,"Bodies":5653,"##76":5654,"wear":5655,"##like":5656,"Master":5657,"honest":5658,"pag":5659,"##Jt":5660,"ante":5661,"##umed":5662,"flew":5663,"##istr":5664,"hearing":5665,"##43":5666,"ade":5667,"ejus":5668,"season":5669,"Roy":5670,"wel":5671,"cip":5672,"Title":5673,"##nef":5674,"##25":5675,"yea":5676,"crit":5677,"stri":5678,"ends":5679,"pert":5680,"evening":5681,"##eto":5682,"fland":5683,"Pounds":5684,"direct":5685,"road":5686,"Ships":5687,"Field":5688,"ball":5689,"##AY":5690,"causes":5691,"charm":5692,"chance":5693,"Luke":5694,"cities":5695,"##fter":5696,"##ormation":5697,"betr":5698,"ecc":5699,"brethren":5700,"##apt":5701,"vero":5702,"tan":5703,"ingen":5704,"Sac":5705,"##field":5706,"vast":5707,"__":5708,"##izens":5709,"'!":5710,"Officers":5711,"Hill":5712,"rv":5713,"##icus":5714,"rail":5715,"##79":5716,"##UN":5717,"belo":5718,"##rence":5719,"Exc":5720,"##VE":5721,"tar":5722,"error":5723,"sr":5724,"Afr":5725,"Pain":5726,"wre":5727,"##plic":5728,"##ios":5729,"##dr":5730,"thither":5731,"ult":5732,"Justice":5733,"ite":5734,"ax":5735,"Qual":5736,"##23":5737,"contri":5738,"Dam":5739,"##eding":5740,"forms":5741,"##that":5742,"##Ir":5743,"##45":5744,"aro":5745,"env":5746,"Jacob":5747,".*":5748,"countries":5749,"immediate":5750,"conceive":5751,"crim":5752,"Disp":5753,"AD":5754,"argument":5755,"elf":5756,"Priv":5757,"requires":5758,"EX":5759,"laugh":5760,"simple":5761,"nob":5762,"variety":5763,"Cu":5764,"Fear":5765,"arr":5766,"##ican":5767,"3d":5768,"Face":5769,"Feet":5770,"##allel":5771,"##iat":5772,"rules":5773,"verb":5774,"##itz":5775,"##Jh":5776,"mes":5777,"Whether":5778,"Adam":5779,"##73":5780,"pc":5781,"Have":5782,"engage":5783,"liber":5784,"oath":5785,"Bread":5786,"##itch":5787,"Fra":5788,"spr":5789,"loved":5790,"dw":5791,"Lad":5792,"##ofc":5793,"##ID":5794,"Books":5795,"usually":5796,"hb":5797,"reasonable":5798,"##emper":5799,"##flt":5800,"##known":5801,"More":5802,"rhe":5803,"Bab":5804,"01":5805,"##eti":5806,"##cal":5807,"pcr":5808,"kinds":5809,"members":5810,"Cit":5811,"##utors":5812,"file":5813,"Happ":5814,"confer":5815,"Spani":5816,"##GE":5817,"rain":5818,"Oper":5819,"##ki":5820,"Bishop":5821,"##mod":5822,"reader":5823,"solid":5824,"transl":5825,"bath":5826,"regul":5827,"Tran":5828,"Vill":5829,"Success":5830,"##alog":5831,"Sn":5832,"printed":5833,"Under":5834,"Thoughts":5835,"##In":5836,"felf":5837,"##aging":5838,"extre":5839,"gods":5840,"##uld":5841,"dignity":5842,"Plant":5843,"benefit":5844,"Turn":5845,"silver":5846,"Providence":5847,"hair":5848,"lev":5849,"wrought":5850,"fallen":5851,"##lel":5852,"##jr":5853,"valu":5854,"Having":5855,"rf":5856,"##ivity":5857,"Enemies":5858,"##78":5859,"heirs":5860,"Nec":5861,"keeping":5862,"ears":5863,"Alexander":5864,"society":5865,"hinder":5866,"mt":5867,"##enn":5868,"ship":5869,"Mur":5870,"Bi":5871,"likely":5872,"Glo":5873,"tel":5874,"ger":5875,"2s":5876,"##iem":5877,"hid":5878,"##inations":5879,"asked":5880,"bat":5881,"Av":5882,"Wine":5883,"pound":5884,"Since":5885,"Till":5886,"spirits":5887,"##46":5888,"pointed":5889,"sin":5890,"Francis":5891,"##48":5892,"forget":5893,"IH":5894,"##lii":5895,"capital":5896,"Secret":5897,"inches":5898,"south":5899,"pend":5900,"lines":5901,"oa":5902,"##ERS":5903,"OR":5904,"##ael":5905,"event":5906,"Ec":5907,"taste":5908,"##omach":5909,"fai":5910,"quit":5911,"vil":5912,"concerned":5913,"##claim":5914,"##lick":5915,"Eg":5916,"vie":5917,"View":5918,"##ositions":5919,"fleet":5920,"##ered":5921,"##acious":5922,"ideas":5923,"firfl":5924,"mountains":5925,"##29":5926,"addition":5927,"##6t":5928,"wt":5929,"fast":5930,"Bet":5931,"Mich":5932,"Baron":5933,"##ivid":5934,"##enl":5935,"Opp":5936,"merely":5937,"sch":5938,"##bon":5939,"cav":5940,"compan":5941,"thinks":5942,"Inn":5943,"##cll":5944,"character":5945,"iis":5946,"##wick":5947,"Horse":5948,"rock":5949,"mortal":5950,"##uity":5951,"flay":5952,"history":5953,"Merc":5954,"##thi":5955,"2d":5956,"pon":5957,"bore":5958,"\",":5959,"aug":5960,"##ifion":5961,"hur":5962,"Temple":5963,"AT":5964,"SP":5965,"##eur":5966,"##anr":5967,"lords":5968,"generous":5969,"occup":5970,"##OC":5971,"##ingu":5972,"##ihil":5973,"sword":5974,"##thern":5975,"wilt":5976,"betwixt":5977,"Mil":5978,"promised":5979,"buried":5980,"·~":5981,"Wal":5982,"big":5983,"gospel":5984,"##trine":5985,"##ibility":5986,"##flon":5987,"##jets":5988,"opposite":5989,"consist":5990,"unhappy":5991,"Quar":5992,"cord":5993,"convenient":5994,"Jose":5995,"sirs":5996,"##ié":5997,"difficulty":5998,"Clergy":5999,"entre":6000,"atque":6001,"loud":6002,"bind":6003,"flowers":6004,"encore":6005,"i1":6006,"enl":6007,"fare":6008,"diver":6009,"yourself":6010,"spo":6011,"##bts":6012,"Cathol":6013,"##quence":6014,"Ri":6015,"mc":6016,"##illings":6017,"##line":6018,"SA":6019,"offe":6020,"ami":6021,"cm":6022,"##eek":6023,"##fn":6024,"Alt":6025,"##OW":6026,"thei":6027,"##tu":6028,"juff":6029,"obedience":6030,"Strength":6031,"xxx":6032,"##ooth":6033,"flour":6034,"Imper":6035,"pull":6036,"##ox":6037,"advice":6038,"##adem":6039,"reading":6040,"East":6041,"tab":6042,"##...":6043,"visit":6044,"Subje":6045,"##orr":6046,"##iance":6047,"dan":6048,"hitherto":6049,"duc":6050,"Gro":6051,"Third":6052,"vine":6053,"says":6054,"##off":6055,"Rc":6056,"##oris":6057,"Joh":6058,"innocent":6059,"eit":6060,"Vers":6061,"intent":6062,"action":6063,"eb":6064,"Hall":6065,"presented":6066,"Mel":6067,"eve":6068,"partic":6069,"Should":6070,"alive":6071,"outward":6072,"##ration":6073,"poll":6074,"##hes":6075,"Nove":6076,"ji":6077,"##tends":6078,"remained":6079,"ceux":6080,"gate":6081,"##ublic":6082,"curious":6083,"##ilities":6084,"##LY":6085,"putting":6086,"168":6087,"Behold":6088,"succeeded":6089,"tried":6090,"aband":6091,"Exper":6092,"Chance":6093,"Before":6094,"##ez":6095,"manners":6096,"##roit":6097,"tat":6098,"ease":6099,"violence":6100,"Serm":6101,"Value":6102,"Motion":6103,"prin":6104,"hut":6105,"##icn":6106,"grief":6107,"Morning":6108,"mé":6109,"honourable":6110,"##ilhop":6111,"##ecd":6112,"universal":6113,"examine":6114,"Like":6115,"##add":6116,"India":6117,"rif":6118,"Pun":6119,"issue":6120,"##61":6121,"##ervation":6122,"speaks":6123,"celebrated":6124,"()":6125,"Black":6126,"satisfied":6127,"##utenant":6128,"##iced":6129,"script":6130,"##vn":6131,"##iler":6132,"##emp":6133,"First":6134,"Mot":6135,"net":6136,"unf":6137,"articles":6138,"cri":6139,"White":6140,"aside":6141,"##ibe":6142,"monarch":6143,"Prison":6144,"genius":6145,"tow":6146,"proceeded":6147,"thec":6148,"executed":6149,"Joseph":6150,"Price":6151,"halt":6152,"Ip":6153,"hun":6154,"difp":6155,"##orns":6156,"unw":6157,"##ails":6158,"##;.":6159,"wanted":6160,"concluded":6161,"ifl":6162,"changed":6163,"himn":6164,"uncle":6165,"procure":6166,"horses":6167,"Cafes":6168,"##xture":6169,"dress":6170,"##rai":6171,"continually":6172,"determine":6173,"##inet":6174,"Charge":6175,"##Jl":6176,"Boy":6177,"##ja":6178,"nou":6179,"Super":6180,"Lew":6181,"##GH":6182,"wide":6183,"##js":6184,"vc":6185,"##inf":6186,"depe":6187,"looks":6188,"contrad":6189,"Nations":6190,"wound":6191,"Table":6192,"confidence":6193,"learning":6194,"3s":6195,"Ger":6196,"bul":6197,"falls":6198,"represented":6199,"où":6200,"intend":6201,"##crt":6202,"Ji":6203,"##afs":6204,"##live":6205,"ning":6206,"##isl":6207,"Servant":6208,"Call":6209,"##zo":6210,"##ffes":6211,"bas":6212,"Occasion":6213,"##edit":6214,"ub":6215,"quae":6216,"lig":6217,"sym":6218,"vr":6219,"suffered":6220,"perceive":6221,"##cial":6222,"Proof":6223,"##28":6224,"PI":6225,"##69":6226,"Jul":6227,"becau":6228,"mun":6229,"owing":6230,"singular":6231,"##ching":6232,"reproach":6233,"##imi":6234,"##leg":6235,"##iny":6236,"salvation":6237,"larger":6238,"lir":6239,"meeting":6240,"Commit":6241,"presence":6242,"##Tr":6243,"##arks":6244,"Leaves":6245,"Qui":6246,"fees":6247,"wealth":6248,"##onde":6249,"ox":6250,"contains":6251,"Bal":6252,"petition":6253,"ordin":6254,"hit":6255,"##icc":6256,"unknown":6257,"Ald":6258,"sor":6259,"##ique":6260,"cool":6261,"##met":6262,"ari":6263,"Lt":6264,"##zen":6265,"space":6266,"yellow":6267,"uch":6268,"##gue":6269,"toutes":6270,"Example":6271,"defer":6272,"glor":6273,"##bell":6274,"confirmed":6275,"apart":6276,"##TE":6277,"##oked":6278,"Eph":6279,"IC":6280,"rights":6281,"Lev":6282,"arre":6283,"##utt":6284,"##ential":6285,"viii":6286,"##umber":6287,"Pfal":6288,"lii":6289,"##68":6290,"bs":6291,"demon":6292,"Sav":6293,"quality":6294,"province":6295,"surely":6296,"##aced":6297,"Obl":6298,"ER":6299,"ES":6300,"thinking":6301,"described":6302,"Names":6303,"flock":6304,"relating":6305,"goodness":6306,"DI":6307,"guilt":6308,"##itute":6309,"Fre":6310,"ters":6311,"intention":6312,"copy":6313,"Cc":6314,"Mill":6315,"Ia":6316,"interp":6317,"fuffer":6318,"##lis":6319,"compar":6320,"crime":6321,"Chief":6322,"##acks":6323,"Fortune":6324,"Heirs":6325,"##itum":6326,"cultiv":6327,"AP":6328,"Poor":6329,"##eted":6330,"hell":6331,"Suc":6332,"##adow":6333,"ould":6334,"##ju":6335,"##ensions":6336,"Camp":6337,"##gan":6338,"##inm":6339,"Stone":6340,"eth":6341,"wih":6342,"Design":6343,"##lier":6344,"runs":6345,"convinced":6346,"freely":6347,"glass":6348,"escape":6349,"bitter":6350,"##lhip":6351,"rp":6352,"##untur":6353,"furpri":6354,"bank":6355,"wy":6356,"AI":6357,"creature":6358,"##bus":6359,"somewhat":6360,"Test":6361,"fancy":6362,"Pleasure":6363,"##zt":6364,"continu":6365,":~":6366,"##fles":6367,"##gen":6368,"?'":6369,"iL":6370,"virtues":6371,"philosoph":6372,"##ATION":6373,"##St":6374,"band":6375,"##ona":6376,"lam":6377,"viv":6378,"-\"":6379,"eminent":6380,"Mankind":6381,"Dor":6382,"ale":6383,"##63":6384,"##anch":6385,"Ay":6386,"repair":6387,"##cended":6388,"wvith":6389,"needs":6390,"falling":6391,"personal":6392,"Oath":6393,"weigh":6394,"anne":6395,"Prof":6396,"readily":6397,"Hearts":6398,"Lim":6399,"Fel":6400,"gn":6401,"Found":6402,"##rand":6403,"fathers":6404,"wrath":6405,"page":6406,"hos":6407,"foil":6408,"aver":6409,"tamen":6410,"antient":6411,"mas":6412,"Smith":6413,"Almighty":6414,"##ugg":6415,"ence":6416,"fund":6417,"circumstances":6418,"Orders":6419,"##vet":6420,"##zed":6421,"##ideration":6422,"flower":6423,"disease":6424,"##ignation":6425,"Course":6426,"##hor":6427,"##cient":6428,"Ja":6429,"##65":6430,"throughout":6431,"Husband":6432,"occur":6433,"##41":6434,"Abraham":6435,"forgot":6436,"##iliar":6437,"Inh":6438,"o1":6439,"heavenly":6440,"Because":6441,"cup":6442,"Phar":6443,"payment":6444,"immort":6445,"##was":6446,"empt":6447,".---":6448,"plants":6449,"treaty":6450,"Span":6451,"##which":6452,"exist":6453,"Holland":6454,"Lou":6455,"SH":6456,"##iffs":6457,"Tor":6458,"Dom":6459,"##oufly":6460,"##ARD":6461,"caused":6462,"mode":6463,"grew":6464,"accompl":6465,"##ology":6466,"reasons":6467,"advance":6468,"foundation":6469,"enlar":6470,"courts":6471,"Ot":6472,"precious":6473,"*'":6474,"grows":6475,"Geo":6476,"##ception":6477,"##lip":6478,"conduct":6479,"apparent":6480,"##qui":6481,"##ofa":6482,"##60":6483,"expence":6484,"Sand":6485,"SEC":6486,"creatures":6487,"##As":6488,"BE":6489,"##rary":6490,"dimin":6491,"hide":6492,"pred":6493,"ud":6494,"disapp":6495,"Evidence":6496,"Saints":6497,"##afion":6498,"Judge":6499,"##agg":6500,"wif":6501,"fault":6502,"divide":6503,"withd":6504,"Rt":6505,"##len":6506,"##yer":6507,"tire":6508,"fk":6509,"##ifir":6510,"##fted":6511,"pill":6512,"az":6513,"gentlemen":6514,"##o0":6515,"front":6516,"branches":6517,",!":6518,"##nels":6519,"##rian":6520,"Sar":6521,"warrant":6522,"Ach":6523,"##lian":6524,"hs":6525,"breast":6526,"adorn":6527,"##icial":6528,"##urre":6529,"rough":6530,"row":6531,"Sons":6532,"##uri":6533,"imposs":6534,"alarm":6535,"winter":6536,"##orders":6537,"Fair":6538,"corpor":6539,"##uries":6540,"i8":6541,"clergy":6542,"Dil":6543,"##ifices":6544,"yearly":6545,"Langu":6546,"pious":6547,"introduced":6548,"exposed":6549,"##vs":6550,"##rows":6551,"Auth":6552,"##cis":6553,"Eu":6554,"Greeks":6555,"##··":6556,"len":6557,"WH":6558,"condemn":6559,"Cot":6560,"Mean":6561,"volunt":6562,"external":6563,"##ods":6564,"fia":6565,"week":6566,"Maje":6567,"Lives":6568,"##hire":6569,"##igi":6570,"Many":6571,"Saint":6572,"##change":6573,"CC":6574,"##stem":6575,"##aunt":6576,"##bours":6577,"##opes":6578,"##30":6579,"Besides":6580,"Dry":6581,"##non":6582,"Bus":6583,"PAR":6584,"##orted":6585,"vide":6586,"soldiers":6587,"##iege":6588,"Fer":6589,"laying":6590,"##wa":6591,"##amen":6592,"una":6593,"LA":6594,"Danger":6595,"lum":6596,"Tu":6597,"##aus":6598,"evid":6599,"Salt":6600,"gh":6601,"##chants":6602,"retire":6603,"riches":6604,"##ube":6605,"inward":6606,"brings":6607,"I8":6608,"Lordship":6609,"absolutely":6610,"joint":6611,"naked":6612,"accident":6613,"running":6614,"##bes":6615,"##idity":6616,"tio":6617,"Arab":6618,"Free":6619,"sto":6620,"blow":6621,"Jf":6622,"thel":6623,"address":6624,"Governor":6625,"union":6626,"##retion":6627,"##ctions":6628,"##itors":6629,"nomin":6630,"saved":6631,"thanks":6632,"meat":6633,"multitude":6634,"Emp":6635,"clearly":6636,"##ifm":6637,"##ilia":6638,"Jl":6639,"gained":6640,"##unto":6641,"Trans":6642,"mild":6643,"##ilg":6644,"##eced":6645,"##cat":6646,"unj":6647,"whic":6648,"carrying":6649,"ubi":6650,"fifth":6651,"Dra":6652,"##ource":6653,"LET":6654,"prepare":6655,"Stre":6656,"##ufa":6657,"##ulo":6658,"Jerus":6659,"##cus":6660,"haz":6661,"againfl":6662,"Bless":6663,"##pton":6664,"wretched":6665,"Salvation":6666,"valuable":6667,"cas":6668,"fors":6669,"fucce":6670,"desir":6671,"lM":6672,"rou":6673,"rose":6674,"anno":6675,"##nto":6676,"anc":6677,"##iing":6678,"attrib":6679,"##iquity":6680,"Return":6681,"notwithstanding":6682,"exa":6683,"##nat":6684,"ours":6685,"ath":6686,"##ateful":6687,"##igs":6688,"walls":6689,"pier":6690,"Women":6691,"pretence":6692,"##olo":6693,"refped":6694,"iti":6695,"Der":6696,"flill":6697,"##erties":6698,"Matth":6699,"receiving":6700,"lament":6701,"Vide":6702,"officer":6703,"profess":6704,"##itio":6705,"Covenant":6706,"##rin":6707,"fert":6708,"##med":6709,"cos":6710,"##tre":6711,"anf":6712,"##iph":6713,"understand":6714,"Ble":6715,"##zi":6716,"beloved":6717,"prophet":6718,");":6719,"base":6720,"rien":6721,"Duties":6722,"relief":6723,"passage":6724,"##Es":6725,"Liv":6726,"devil":6727,"commerce":6728,"seized":6729,"##uding":6730,"Cb":6731,"UN":6732,"vet":6733,"building":6734,"rome":6735,"Lin":6736,"mixed":6737,"pair":6738,"##orable":6739,"military":6740,"calling":6741,"owe":6742,"##22":6743,"cattle":6744,"spent":6745,"iil":6746,"##hem":6747,"History":6748,"fte":6749,"##orney":6750,"NE":6751,"dia":6752,";~":6753,"Mais":6754,"##xx":6755,"##icity":6756,"importance":6757,"ort":6758,"containing":6759,"Devil":6760,"##cep":6761,"##tio":6762,"##fet":6763,"fliould":6764,"turns":6765,"Samuel":6766,"##ran":6767,"Proper":6768,"##da":6769,"##quent":6770,"i5":6771,"absolute":6772,"Sund":6773,"distingu":6774,"reli":6775,"Evil":6776,"##umes":6777,"memory":6778,"inr":6779,"##cean":6780,"Wall":6781,"altogether":6782,"foi":6783,"contre":6784,"Terms":6785,"Miles":6786,"cens":6787,"Empire":6788,"apost":6789,"begins":6790,"wanting":6791,"##oup":6792,"resolution":6793,"train":6794,"Pag":6795,"necef":6796,"xii":6797,"Indeed":6798,"##icis":6799,"mufl":6800,"tut":6801,"Churches":6802,"tes":6803,"IF":6804,"pil":6805,"Wil":6806,"ilt":6807,"##qua":6808,"##respond":6809,"win":6810,"##ifling":6811,"Nov":6812,"emperor":6813,"toe":6814,"Wa":6815,"##cit":6816,"##choly":6817,"##39":6818,"abl":6819,"confined":6820,")'":6821,"##47":6822,"cun":6823,"vile":6824,"bis":6825,"##illy":6826,"Jerusalem":6827,"##ulties":6828,"journey":6829,"barbar":6830,"CI":6831,"Cant":6832,"descend":6833,"##ller":6834,".'.":6835,"iit":6836,"nim":6837,"lea":6838,"Set":6839,"Oxford":6840,"##ada":6841,"partly":6842,"2z":6843,"##kin":6844,"nut":6845,"mai":6846,"1l":6847,"CA":6848,"Nothing":6849,"prc":6850,"##icient":6851,"explain":6852,"##more":6853,"##rain":6854,"understood":6855,"lux":6856,"##from":6857,"Out":6858,"Dou":6859,"!\"":6860,"Vic":6861,"buy":6862,"surpr":6863,"ings":6864,"hap":6865,"ram":6866,"##Le":6867,"Satis":6868,"writers":6869,"offering":6870,"pale":6871,"impart":6872,"prote":6873,"\"-":6874,"extent":6875,"ew":6876,"foll":6877,"special":6878,"looking":6879,"Jef":6880,"sav":6881,"##CI":6882,"Doc":6883,"##rait":6884,"fifteen":6885,"##Th":6886,"91":6887,"##Lt":6888,"1t":6889,"......":6890,"impossible":6891,"rg":6892,"Green":6893,"Afl":6894,"expressed":6895,"bie":6896,"##olv":6897,"wounded":6898,"expect":6899,"rav":6900,"conform":6901,"separate":6902,"##iform":6903,"bringing":6904,"Ditto":6905,"##abled":6906,"##asting":6907,"Servants":6908,"##ading":6909,"##olent":6910,"##erem":6911,"##idden":6912,"##chief":6913,"hI":6914,"acid":6915,"##inous":6916,"fii":6917,"auc":6918,"##rif":6919,"serious":6920,"##imon":6921,"Purpose":6922,"iw":6923,"2o":6924,"corp":6925,"##:,":6926,"##alks":6927,"composed":6928,"fruits":6929,"custom":6930,"##idem":6931,"Principles":6932,"wond":6933,"Fac":6934,"##athen":6935,"difc":6936,"sacrifice":6937,"quad":6938,"Germany":6939,"##chi":6940,"##phe":6941,"##atl":6942,"los":6943,"##59":6944,"##lles":6945,"mihi":6946,"nem":6947,"east":6948,"happens":6949,"##agn":6950,"##ithe":6951,"##ieur":6952,"Neigh":6953,"fich":6954,"square":6955,"FR":6956,"-----":6957,"vac":6958,"##atione":6959,"##felves":6960,"Notice":6961,"captain":6962,"Nav":6963,"acknowledge":6964,"Lon":6965,"confid":6966,"pare":6967,"diam":6968,"Debt":6969,"Look":6970,"##yf":6971,"##atives":6972,"été":6973,"##ndi":6974,"Advantage":6975,"kin":6976,"##itely":6977,"##geance":6978,"terrible":6979,"82":6980,"Pot":6981,"##yle":6982,"##raph":6983,"##jc":6984,"prevented":6985,"comn":6986,"bp":6987,"bail":6988,"##yd":6989,"Spirits":6990,"pp":6991,"##ciences":6992,"##ifin":6993,"mart":6994,"##ieved":6995,"efe":6996,"##71":6997,"##ban":6998,"grown":6999,"remaining":7000,"Affairs":7001,"Virgin":7002,"fles":7003,"enf":7004,"everl":7005,"around":7006,"Neg":7007,"verse":7008,"begun":7009,"nal":7010,"surr":7011,"permit":7012,"security":7013,"##fcl":7014,"ald":7015,"##dt":7016,"herein":7017,"##head":7018,"tall":7019,"animals":7020,"exert":7021,"##fly":7022,"univer":7023,"Hear":7024,"unb":7025,"##inlg":7026,"griev":7027,"##bation":7028,"I4":7029,"mountain":7030,"lle":7031,"Months":7032,"111":7033,"preceding":7034,"Mess":7035,"Rece":7036,"lid":7037,"(;":7038,"rele":7039,"fromn":7040,"moon":7041,"ille":7042,"cin":7043,"conversation":7044,"##oufe":7045,"##LA":7046,"##embr":7047,"bears":7048,"application":7049,"alle":7050,"Clerk":7051,"##ulus":7052,"fuff":7053,"forfeit":7054,"parents":7055,"related":7056,"##emble":7057,"##rick":7058,"CHR":7059,"towns":7060,"dot":7061,"crow":7062,"bearing":7063,"Seed":7064,"##itious":7065,"Ra":7066,"##crip":7067,"?,":7068,"Anim":7069,"Month":7070,"##aniel":7071,"Beh":7072,"stone":7073,"nie":7074,"ier":7075,"preserved":7076,"fitting":7077,"##50":7078,"condemned":7079,"nce":7080,"##fus":7081,"Tyr":7082,"Cou":7083,"occasions":7084,"tres":7085,"Commun":7086,"extended":7087,"Sight":7088,"##alis":7089,"Dc":7090,"t1":7091,"calcul":7092,"##onne":7093,"Statute":7094,"designed":7095,"Wisdom":7096,"perpetual":7097,"##ml":7098,"indul":7099,"Mouth":7100,"Moon":7101,"cli":7102,"refused":7103,"virtuous":7104,"Beauty":7105,"##ville":7106,"\"\"":7107,"fri":7108,"supported":7109,"About":7110,"##ecution":7111,"Pil":7112,"hle":7113,"wonderful":7114,"daughters":7115,"odd":7116,"pleasant":7117,"##oh":7118,"advantages":7119,"reply":7120,"Vice":7121,"slain":7122,"Hell":7123,"Dieu":7124,"')":7125,"##antes":7126,"##rg":7127,"Rules":7128,"Sure":7129,"neck":7130,"progress":7131,"derived":7132,"dent":7133,"han":7134,"offend":7135,"wee":7136,"##ties":7137,"conscience":7138,"##preme":7139,"##atc":7140,"paff":7141,"Hour":7142,"turning":7143,"endeavoured":7144,"consent":7145,"prevailed":7146,"##rès":7147,"dilt":7148,"03":7149,"behaviour":7150,"##anti":7151,"denied":7152,"##ividual":7153,"##rage":7154,"iri":7155,"##wo":7156,"fpec":7157,"##embl":7158,"##uge":7159,"namely":7160,"image":7161,"##uta":7162,"failed":7163,"Degree":7164,"##omon":7165,"##burgh":7166,"##iot":7167,"aind":7168,"Figure":7169,"tax":7170,"##erning":7171,"wants":7172,":\"":7173,"fain":7174,"Copy":7175,"recovered":7176,"##erity":7177,"Defend":7178,"PA":7179,"##ufc":7180,"unfort":7181,"Hope":7182,"Const":7183,"##ituted":7184,"##aufe":7185,"ED":7186,"discharge":7187,"moll":7188,"entitled":7189,"sen":7190,"##ignity":7191,"vert":7192,"freedom":7193,"##amples":7194,"tour":7195,"Marriage":7196,"departed":7197,"propos":7198,"iM":7199,"##ama":7200,"feu":7201,"judges":7202,"majesty":7203,"##OO":7204,"larg":7205,"##fcr":7206,"Committee":7207,"sincere":7208,"absurd":7209,"##rable":7210,"##lll":7211,"lm":7212,"occasioned":7213,"##then":7214,"permitted":7215,"SU":7216,"conduc":7217,"opinions":7218,"appell":7219,"lov":7220,"increased":7221,"tibi":7222,"worship":7223,"XII":7224,"Grant":7225,"offence":7226,"yours":7227,"concur":7228,"transport":7229,"vener":7230,"marks":7231,"arbit":7232,"##ray":7233,"Dub":7234,"Confe":7235,"village":7236,"##reement":7237,"cod":7238,"##72":7239,"nearer":7240,"cong":7241,"§.":7242,"foit":7243,"##eries":7244,"Adj":7245,"bod":7246,"sentiments":7247,"fcc":7248,"themn":7249,"Happiness":7250,"moit":7251,"remedy":7252,"##quest":7253,"scene":7254,"mutual":7255,"measures":7256,"##anity":7257,"quidem":7258,"hero":7259,"##iven":7260,"tive":7261,"##uin":7262,"toward":7263,"loose":7264,"##:'":7265,"flop":7266,"fears":7267,"fj":7268,"Root":7269,"misfort":7270,"##itre":7271,"chamber":7272,"Colonel":7273,"angel":7274,"Ghost":7275,"##agne":7276,"##onds":7277,"##ishes":7278,"Anne":7279,"Pan":7280,"jealous":7281,"##ancholy":7282,"##velation":7283,"wc":7284,"Angels":7285,"Mult":7286,"instance":7287,"!;":7288,"Jour":7289,"forc":7290,"rising":7291,"##anim":7292,"faints":7293,"##abe":7294,"infant":7295,"##rey":7296,"intim":7297,"##olf":7298,"hil":7299,"##ader":7300,"##bey":7301,"hn":7302,"Houses":7303,"bot":7304,"boy":7305,"##ancing":7306,"visible":7307,"Never":7308,"##HN":7309,"eftabl":7310,"##lp":7311,"Among":7312,"##rv":7313,"operation":7314,"##iin":7315,"receiv":7316,"dow":7317,"##iftr":7318,"quibus":7319,"Sing":7320,"·'":7321,"thele":7322,"legal":7323,"earnest":7324,"Courts":7325,"##cion":7326,"##osom":7327,"perceived":7328,"idle":7329,"planted":7330,"##crc":7331,"justly":7332,"##td":7333,"Reader":7334,"Prod":7335,"Sort":7336,"##TA":7337,"dix":7338,"##fum":7339,"Burg":7340,"eir":7341,"disposition":7342,"##tile":7343,"alled":7344,"##ulph":7345,"fuis":7346,"##~~~~~~~~~~~~~~~~":7347,"Members":7348,"##uto":7349,"##vity":7350,"speech":7351,"##55":7352,"Business":7353,"rejoice":7354,"##ifle":7355,"threw":7356,"vos":7357,"gay":7358,"Both":7359,"##opher":7360,"countenance":7361,"Portug":7362,"toler":7363,"disposed":7364,"impof":7365,"##ifled":7366,"Dio":7367,"Ion":7368,"signifies":7369,"Matters":7370,"##bb":7371,"##ERE":7372,"HA":7373,"endure":7374,"##itas":7375,"interrupt":7376,"##tle":7377,"##arest":7378,"obferv":7379,"terre":7380,"lame":7381,"##si":7382,"manifest":7383,"obsc":7384,"clock":7385,"wis":7386,"complain":7387,"##irk":7388,"Civil":7389,"feeds":7390,"recommend":7391,"patience":7392,"safety":7393,"swell":7394,"displ":7395,"ici":7396,"##____":7397,"##iper":7398,"homme":7399,"Consequ":7400,"Confl":7401,"gross":7402,"retired":7403,"tune":7404,"powder":7405,"fresh":7406,"anD":7407,"Scots":7408,"dar":7409,"Trou":7410,"##aming":7411,"thew":7412,"##amin":7413,"##anus":7414,"Hl":7415,"##ndo":7416,"charity":7417,"tm":7418,"impre":7419,"scr":7420,"perfec":7421,"Were":7422,"##anny":7423,"elo":7424,"Parent":7425,"##icum":7426,"retreat":7427,"##iro":7428,"altar":7429,"##worth":7430,"##ifications":7431,"IJ":7432,"Reven":7433,"profit":7434,"Tom":7435,"governor":7436,"##wood":7437,"faid":7438,"refl":7439,"hed":7440,"riv":7441,"rebell":7442,"##jours":7443,"Steph":7444,"##etor":7445,"3o":7446,"##far":7447,"Each":7448,"##entia":7449,"##jea":7450,"weather":7451,"opposition":7452,"ended":7453,"gift":7454,"##ufi":7455,"lia":7456,"refpet":7457,",,,":7458,"moins":7459,"angels":7460,"cease":7461,"##ql":7462,"acquired":7463,"##ighth":7464,"ql":7465,"coast":7466,"patri":7467,"Chrift":7468,"ies":7469,"cb":7470,"Aft":7471,"lays":7472,"##gt":7473,"milk":7474,"dol":7475,"##illa":7476,"##TS":7477,"Mons":7478,"##iency":7479,"prohib":7480,"MS":7481,"##eration":7482,"growing":7483,"examined":7484,"complete":7485,"folly":7486,"##version":7487,"ving":7488,"cv":7489,"boil":7490,"##ndre":7491,"200":7492,"tv":7493,"tear":7494,"##adt":7495,"##42":7496,"prosper":7497,"accounts":7498,"Jur":7499,"##itud":7500,"conceal":7501,"exal":7502,"oblige":7503,"spot":7504,"##ifo":7505,"cen":7506,"uncertain":7507,"quickly":7508,"dle":7509,"##ulum":7510,"accompan":7511,"Anno":7512,"toute":7513,"size":7514,"Cra":7515,"weep":7516,"##eting":7517,"##incess":7518,"##́r":7519,"ambition":7520,"Febru":7521,"##iction":7522,"Estate":7523,"ron":7524,"beca":7525,"lhould":7526,"##hs":7527,"news":7528,"jus":7529,"XL":7530,"##where":7531,"lac":7532,"Angel":7533,"##ldier":7534,"necessity":7535,"ooo":7536,"firfi":7537,"Compl":7538,"vef":7539,"##cen":7540,"guide":7541,"##At":7542,"tp":7543,"defir":7544,"Stock":7545,"College":7546,"Amen":7547,"##ilr":7548,"independ":7549,"gan":7550,"surface":7551,"pals":7552,"##vag":7553,"##aks":7554,"repre":7555,"##nts":7556,"lively":7557,"firt":7558,"reform":7559,"According":7560,"##ieth":7561,"i3":7562,"Job":7563,"##bot":7564,"firlt":7565,"##88":7566,"practice":7567,"Ol":7568,"feem":7569,"'*":7570,"Knight":7571,"Lewis":7572,"sufficiently":7573,"##erving":7574,"fui":7575,"pence":7576,"Scriptures":7577,"Judg":7578,"##ulc":7579,"Hebrew":7580,"##Ch":7581,"##xious":7582,"##afed":7583,"Fruit":7584,"utterly":7585,"sigh":7586,"##ador":7587,"hew":7588,"Lc":7589,"pafl":7590,"Bow":7591,"##chan":7592,"##pen":7593,"Swed":7594,"Dun":7595,"antiqu":7596,"garden":7597,"##ifr":7598,"##ulis":7599,"Cong":7600,"Bay":7601,"Ov":7602,"##mr":7603,"dog":7604,"juft":7605,"Nam":7606,"search":7607,"##ilion":7608,"##don":7609,"song":7610,"severe":7611,"Max":7612,"driven":7613,"clos":7614,"vict":7615,"##join":7616,"##zs":7617,"Execution":7618,"##inking":7619,"expref":7620,"##iture":7621,"##lan":7622,"submit":7623,"spake":7624,"Die":7625,"authors":7626,"##ternity":7627,"inve":7628,"underfl":7629,"Piece":7630,"yard":7631,"##pc":7632,"tended":7633,"Py":7634,"againfi":7635,"##53":7636,"date":7637,"##roke":7638,"Ke":7639,"later":7640,"Zeal":7641,"gene":7642,"ms":7643,"##ecs":7644,"Os":7645,"##asing":7646,"##chequer":7647,"Satan":7648,"Va":7649,"rI":7650,"##ington":7651,"4s":7652,"published":7653,"Fran":7654,"##adi":7655,"##fid":7656,"ian":7657,"beneath":7658,"##mt":7659,"hir":7660,"burning":7661,"##ulent":7662,"blue":7663,"Give":7664,"##.'":7665,"##cio":7666,"commod":7667,"declaration":7668,"distant":7669,"shalt":7670,"##hended":7671,"Dist":7672,"Effe":7673,"##cks":7674,"fields":7675,"totally":7676,"deserve":7677,"diftingu":7678,"disorder":7679,"wu":7680,"##bu":7681,"modo":7682,"##voir":7683,"I9":7684,"##ofo":7685,"TE":7686,"inft":7687,"revenge":7688,"counter":7689,"##render":7690,"##enced":7691,"Rever":7692,"instr":7693,":·":7694,"##roach":7695,"Edin":7696,"adds":7697,"charms":7698,"a1":7699,"constant":7700,"tern":7701,"##inig":7702,"uni":7703,"cil":7704,"##OUS":7705,"borrow":7706,"venture":7707,"September":7708,"##tor":7709,"nis":7710,"iln":7711,"##entes":7712,"hip":7713,"flie":7714,"Fi":7715,"provide":7716,"caus":7717,"apprehend":7718,"neque":7719,"passion":7720,"Cir":7721,"##terity":7722,"prisoner":7723,"##ky":7724,"\\\\":7725,"vind":7726,"chris":7727,"parallel":7728,"dill":7729,"Articles":7730,"conceived":7731,"branch":7732,"##ev":7733,"Saul":7734,"##geon":7735,"judged":7736,"##cft":7737,"vall":7738,"palace":7739,"minister":7740,"Charity":7741,"##elity":7742,"##onia":7743,"##mend":7744,"##TO":7745,"##oration":7746,"circle":7747,"##zes":7748,"##ido":7749,"material":7750,"##IM":7751,"Iv":7752,"vour":7753,"##zy":7754,"fuch":7755,"Judges":7756,"forgive":7757,"iJ":7758,"cui":7759,"Bath":7760,"Duc":7761,"member":7762,"gs":7763,"Fellow":7764,"TR":7765,"eaf":7766,",..":7767,"##itc":7768,"reputation":7769,"Powers":7770,"##udd":7771,"Excell":7772,"##ulted":7773,"sentence":7774,"pursue":7775,"Colour":7776,"PH":7777,"'(":7778,"chear":7779,"preached":7780,"##arius":7781,"Conv":7782,"anger":7783,"##ptoms":7784,"##fls":7785,"Ei":7786,"female":7787,"Chapter":7788,"Bart":7789,"Plan":7790,"##0o":7791,"ignorance":7792,"LXX":7793,"##74":7794,"##arl":7795,"##aron":7796,"##oints":7797,"##rig":7798,"300":7799,"see":7800,"##ously":7801,"persuaded":7802,"##erst":7803,"thereto":7804,"reckon":7805,"ach":7806,"##-'":7807,"z2":7808,"silent":7809,"Pret":7810,"infe":7811,"accur":7812,"coin":7813,"Hu":7814,"ceremon":7815,"text":7816,"Weight":7817,"diftin":7818,"vif":7819,"Greece":7820,"extreme":7821,"Und":7822,"prayers":7823,"##oubted":7824,"##embled":7825,"lieu":7826,"##urance":7827,"##ex":7828,"path":7829,"Prote":7830,"ladies":7831,"wings":7832,"##ben":7833,"tween":7834,"##SE":7835,"setting":7836,"bloody":7837,"##qual":7838,"Ali":7839,"remainder":7840,"Quantity":7841,"##The":7842,"opening":7843,"bought":7844,"manuf":7845,"similar":7846,"6o":7847,"Som":7848,"parti":7849,"##IE":7850,"##rim":7851,"elles":7852,"pai":7853,"lane":7854,"##́es":7855,"##ecy":7856,"onl":7857,".?":7858,"BR":7859,"Chron":7860,"system":7861,"##cur":7862,"December":7863,"A4":7864,"voir":7865,";!":7866,"destroyed":7867,"##nis":7868,"Sovereign":7869,"views":7870,"mos":7871,"morrow":7872,"German":7873,"##inks":7874,"lips":7875,"brown":7876,"Pride":7877,"Obedience":7878,"##kt":7879,"soever":7880,"Inj":7881,"·;":7882,"##rels":7883,"pel":7884,"##mond":7885,"ham":7886,"##ression":7887,"aged":7888,"ofa":7889,"calm":7890,"Lan":7891,"Tal":7892,"rational":7893,"incap":7894,"silence":7895,"Dur":7896,"lovely":7897,"Tar":7898,"duly":7899,"efp":7900,"##wers":7901,"hypo":7902,"Wherefore":7903,"Preach":7904,"##unm":7905,"Fal":7906,"##net":7907,"##grace":7908,"frame":7909,"promote":7910,"&~":7911,"IP":7912,"##idit":7913,"laud":7914,"Trib":7915,"miserable":7916,"Oil":7917,"Flowers":7918,"cording":7919,"vanity":7920,"greate":7921,"thereupon":7922,"##ATE":7923,"desires":7924,"##edl":7925,"iff":7926,"Jon":7927,"Prophet":7928,"##zr":7929,"discourse":7930,"bones":7931,"crimes":7932,"ally":7933,"Angle":7934,"##emption":7935,"##cefl":7936,"relate":7937,"##uction":7938,"##bet":7939,"faut":7940,"Pt":7941,"ki":7942,"##OND":7943,"Baby":7944,"##git":7945,"##thes":7946,"Archb":7947,"erat":7948,"Edw":7949,"August":7950,"favourable":7951,"##cile":7952,"arrive":7953,"information":7954,"4th":7955,"8vo":7956,"jun":7957,"Voice":7958,"ridicul":7959,"adver":7960,"hoped":7961,"chi":7962,",--":7963,"fider":7964,"individual":7965,"·:":7966,"##inde":7967,"eldest":7968,"##89":7969,"imagined":7970,"churches":7971,"LO":7972,"##odi":7973,"presently":7974,"ior":7975,"fach":7976,"incur":7977,"flesh":7978,"golden":7979,"class":7980,"travell":7981,"Admiral":7982,"Prayers":7983,"rin":7984,"##bur":7985,"Paper":7986,"priest":7987,"Jun":7988,"##xe":7989,"ofth":7990,"eux":7991,"attain":7992,"obv":7993,"vale":7994,".-.":7995,"hey":7996,"votre":7997,"nihil":7998,"luc":7999,"##rich":8000,"carefully":8001,"continual":8002,"efi":8003,"virg":8004,"Proceed":8005,"##going":8006,"##eres":8007,"amaz":8008,"##fec":8009,"careful":8010,"ample":8011,"imn":8012,"##portion":8013,"##wife":8014,"drawing":8015,"Silver":8016,"Bat":8017,"paint":8018,"##lock":8019,"humbly":8020,"quem":8021,"##icd":8022,"idol":8023,"##80":8024,"infir":8025,"Declar":8026,"##kr":8027,"decree":8028,"Spaniards":8029,"oppose":8030,"Ij":8031,"writer":8032,"physic":8033,"cept":8034,"inclined":8035,"##iron":8036,"PL":8037,"lv":8038,"Hundred":8039,"##itated":8040,"drop":8041,"vern":8042,"Mayor":8043,"precept":8044,"##erent":8045,"accepted":8046,"disciples":8047,"Fleet":8048,"loves":8049,"angry":8050,"Bri":8051,"Room":8052,"lec":8053,"hills":8054,"##ountain":8055,"iC":8056,"lli":8057,"fits":8058,"paying":8059,"Lit":8060,"deft":8061,"fC":8062,"lp":8063,"affair":8064,"correspond":8065,"##vention":8066,"Would":8067,"prudent":8068,"Aud":8069,"Petition":8070,"##tes":8071,"vulgar":8072,"drive":8073,"##oon":8074,"Lam":8075,"##oting":8076,"alk":8077,"##64":8078,"political":8079,"Aut":8080,"calam":8081,"##theless":8082,"trop":8083,"Language":8084,"moderate":8085,"pleasing":8086,"flame":8087,"##com":8088,"ond":8089,"Island":8090,"RO":8091,"Athen":8092,"tort":8093,"Throne":8094,"colours":8095,"Det":8096,"Advice":8097,"Guard":8098,"education":8099,"##tere":8100,"oy":8101,"pn":8102,"Cel":8103,"pir":8104,"bishop":8105,"rip":8106,"catch":8107,"arising":8108,"MAR":8109,"\\'":8110,"iA":8111,"envy":8112,"Bull":8113,"Lor":8114,"strange":8115,"##IX":8116,"arose":8117,"veget":8118,"##aris":8119,"Half":8120,"cath":8121,"quand":8122,"##ede":8123,"rivers":8124,"mourn":8125,"##bridge":8126,"flr":8127,"##worthy":8128,"##ivi":8129,"Appear":8130,"Birth":8131,"##ishops":8132,"##VII":8133,"cries":8134,"##pole":8135,"een":8136,"respect":8137,"Ign":8138,"7o":8139,"Lic":8140,"thor":8141,"swear":8142,"delay":8143,"liquor":8144,"Imm":8145,"jult":8146,"fhe":8147,"##wydd":8148,"Gentiles":8149,"jamais":8150,"##utus":8151,"dum":8152,"Judah":8153,"acr":8154,"midst":8155,"obfer":8156,"XIV":8157,"empty":8158,"ace":8159,"aS":8160,"##regular":8161,"Argument":8162,"bred":8163,"##fen":8164,"rod":8165,"Syn":8166,"cruc":8167,"##clam":8168,"..........":8169,"##gate":8170,"##~~~":8171,"##igr":8172,"SS":8173,"Publick":8174,"Heads":8175,"alas":8176,"##icip":8177,"##mitted":8178,"##BER":8179,"Scr":8180,"##eret":8181,"whenever":8182,"gathered":8183,"troubles":8184,"familiar":8185,"humour":8186,"après":8187,"Vid":8188,"gates":8189,"81":8190,"commend":8191,"dull":8192,"pote":8193,"jufl":8194,"ray":8195,"chara":8196,"ein":8197,"stre":8198,"##ofes":8199,"Voy":8200,"darkness":8201,"tii":8202,"ight":8203,"##DE":8204,"hole":8205,"fright":8206,"pleaf":8207,"deprived":8208,"retain":8209,"prec":8210,"##Etion":8211,"Creatures":8212,"Sou":8213,"heal":8214,"rie":8215,"Low":8216,"Sometimes":8217,"compe":8218,"##nte":8219,"Chamber":8220,"contro":8221,"magnific":8222,"##illi":8223,"5s":8224,"Seal":8225,"hind":8226,"##RY":8227,"foe":8228,"unre":8229,"assured":8230,"Oc":8231,"February":8232,"feal":8233,"mne":8234,"##verty":8235,"thet":8236,"Bank":8237,"iI":8238,"##KE":8239,"signed":8240,"##urc":8241,"market":8242,"proceeds":8243,"limited":8244,"accompanied":8245,"##iJ":8246,"bour":8247,"Rot":8248,"fraud":8249,"##quel":8250,"holds":8251,"COM":8252,"Conscience":8253,"bent":8254,"ors":8255,"ofl":8256,"enable":8257,"Bon":8258,"##67":8259,"~~~~~":8260,"##leep":8261,"quelque":8262,".(":8263,"oz":8264,"attempted":8265,"##35":8266,"##udence":8267,"Mus":8268,"Privile":8269,"##iage":8270,"execute":8271,"Discip":8272,"TA":8273,"Minds":8274,"advent":8275,"prac":8276,"qlu":8277,"omnes":8278,"Isa":8279,"##angel":8280,"marked":8281,"Begin":8282,"##bd":8283,"Mid":8284,"wing":8285,"##oria":8286,"Inhabitants":8287,"##imen":8288,"##rop":8289,"Win":8290,"compared":8291,"prey":8292,"finds":8293,"##clt":8294,"Tree":8295,"appreh":8296,"##eech":8297,"sis":8298,"Goodness":8299,"##''":8300,"##lg":8301,"##uil":8302,"##una":8303,"QU":8304,"##31":8305,"##fier":8306,"roll":8307,"proves":8308,"immortal":8309,"rais":8310,"January":8311,"rai":8312,"Also":8313,"description":8314,"Fall":8315,"elegant":8316,"Solomon":8317,"RI":8318,"puts":8319,"##Re":8320,"nin":8321,"##rup":8322,"November":8323,"##ifque":8324,"Ili":8325,"og":8326,"##etl":8327,"##mas":8328,"doit":8329,"fulf":8330,"##eties":8331,"Cardinal":8332,"04":8333,"Fin":8334,"Ur":8335,"proceeding":8336,"nic":8337,"families":8338,"British":8339,"pin":8340,"directed":8341,"##olve":8342,"Witness":8343,"Sym":8344,"##iller":8345,"Fif":8346,"##mar":8347,"constitution":8348,"damn":8349,"ity":8350,"CG":8351,"i7":8352,"tenant":8353,"melancholy":8354,"##irr":8355,"rei":8356,"cad":8357,"Speech":8358,"refuse":8359,"##bler":8360,"##cem":8361,"ships":8362,"Noble":8363,"Length":8364,"sovereign":8365,"purchase":8366,"##VER":8367,"##idents":8368,"esteem":8369,"##ilo":8370,"lets":8371,"unde":8372,"Opport":8373,"##To":8374,"fome":8375,"Hours":8376,"Plants":8377,"wars":8378,"-------":8379,"Spring":8380,"##62":8381,"Ages":8382,"IA":8383,"qualities":8384,"Cand":8385,"##quc":8386,";·":8387,"Majefly":8388,"Numbers":8389,"##ifa":8390,"blame":8391,"IE":8392,"quell":8393,"chose":8394,"pose":8395,"fury":8396,"##**":8397,"cow":8398,"##amus":8399,"Od":8400,"uncom":8401,"Ea":8402,"##ELL":8403,"partial":8404,"eleven":8405,"unex":8406,"bull":8407,"ftreet":8408,"##aci":8409,"appeal":8410,"Ari":8411,"armed":8412,"hac":8413,"compass":8414,"tO":8415,"##fation":8416,"process":8417,"##PH":8418,"Heat":8419,"Ld":8420,"enjoyed":8421,"vessels":8422,"##tc":8423,"hem":8424,"Wales":8425,"##eded":8426,"##ilon":8427,"ford":8428,"##vin":8429,"Particular":8430,"##las":8431,"observation":8432,"Jhall":8433,"Cast":8434,"debts":8435,"##jects":8436,"Eve":8437,"##01":8438,"##ering":8439,"inch":8440,"Top":8441,"writings":8442,"returning":8443,"citizens":8444,"internal":8445,"ming":8446,"younger":8447,"Union":8448,"forbear":8449,"Protest":8450,"Soldiers":8451,"##anes":8452,"ak":8453,"hazard":8454,"Text":8455,"Pains":8456,"##TON":8457,"Rent":8458,"fufp":8459,"particulars":8460,"batt":8461,"Pardon":8462,"confidering":8463,"Degrees":8464,"09":8465,"undoubted":8466,"Heir":8467,"Cow":8468,"##ras":8469,"vcr":8470,"arrival":8471,"##olation":8472,"jl":8473,"Neither":8474,"##noon":8475,"precip":8476,"6s":8477,"##imum":8478,"fous":8479,"##teries":8480,"gw":8481,"Original":8482,"sett":8483,"02":8484,"Dear":8485,"rib":8486,"Difference":8487,"zz":8488,"corps":8489,"mont":8490,"##rp":8491,"Fathers":8492,"Lod":8493,"national":8494,"##bing":8495,"##nant":8496,"Lamb":8497,"##fia":8498,"##nem":8499,"Thee":8500,"rag":8501,"winds":8502,"##regation":8503,"Alas":8504,"gin":8505,"##38":8506,"satisfy":8507,"Incl":8508,"celui":8509,"Admin":8510,"Loss":8511,"nun":8512,"subd":8513,"##ENE":8514,"events":8515,"##nu":8516,"notes":8517,"adjud":8518,"Buck":8519,"voyage":8520,"##iana":8521,"inftr":8522,"Lieutenant":8523,"ceff":8524,"Daniel":8525,"init":8526,"diffe":8527,"Contr":8528,"nigh":8529,"mea":8530,"tea":8531,"Forces":8532,"bri":8533,"weft":8534,"##elty":8535,"Treaty":8536,"stands":8537,"##NE":8538,"lover":8539,"bark":8540,"itt":8541,"imagination":8542,"troubled":8543,"dii":8544,"sex":8545,"PE":8546,"proclaim":8547,"bone":8548,"inftru":8549,"contend":8550,"Medic":8551,"Sword":8552,"##pul":8553,"talents":8554,"chapter":8555,"nf":8556,"provinces":8557,"dio":8558,"Article":8559,"exalted":8560,"##lemn":8561,"##lant":8562,"##;,":8563,"Dot":8564,"##rom":8565,"andt":8566,"holding":8567,"SER":8568,"Tab":8569,"pleasures":8570,"Chancellor":8571,"tice":8572,"Cru":8573,"commands":8574,"tcr":8575,"##ioned":8576,"##cribes":8577,"nunc":8578,"##icnt":8579,"forte":8580,"Countries":8581,"##Ts":8582,"##bant":8583,"##plex":8584,"Bour":8585,"##ofs":8586,"Defence":8587,"Tongue":8588,"Reasons":8589,"##ews":8590,"quas":8591,"toujours":8592,"l1":8593,"righte":8594,"procured":8595,"Nich":8596,"Youth":8597,"dence":8598,"Troops":8599,"##emen":8600,"desirous":8601,"grande":8602,"knight":8603,"##angle":8604,"situated":8605,"noise":8606,"##ofoph":8607,"Public":8608,"quin":8609,"Cross":8610,"##itudes":8611,"ved":8612,"piety":8613,"xxv":8614,"Tears":8615,"cant":8616,"##iai":8617,"##Se":8618,"enabled":8619,"rth":8620,"Stra":8621,"improper":8622,"##acu":8623,"Over":8624,"LL":8625,"Norm":8626,"Cum":8627,"##.,":8628,"Linc":8629,"quart":8630,"##inence":8631,"##lers":8632,"##ndum":8633,"chufe":8634,"Ale":8635,"demanded":8636,"quis":8637,"Middle":8638,"tems":8639,"JOHN":8640,"uc":8641,"omnia":8642,"Babylon":8643,"##58":8644,"py":8645,"Labour":8646,"againf":8647,"##TIC":8648,"enquire":8649,"plate":8650,"incons":8651,"ego":8652,"##ping":8653,"Pu":8654,"Say":8655,"wet":8656,"purposes":8657,"Indies":8658,"##lets":8659,"houfe":8660,"##Js":8661,"Abr":8662,"attent":8663,"Dog":8664,"conft":8665,"##ieft":8666,"##rier":8667,"positive":8668,"Vari":8669,"fence":8670,"propag":8671,"gle":8672,"rocks":8673,"defl":8674,"bay":8675,"upright":8676,"##urm":8677,"##long":8678,"##hing":8679,"##izing":8680,"Loc":8681,"rity":8682,"neceff":8683,"dated":8684,"i2":8685,"neceflary":8686,"Crit":8687,"Consideration":8688,"Ball":8689,"tru":8690,"tun":8691,";)":8692,"##ymph":8693,"##pher":8694,"Pound":8695,"opt":8696,"bee":8697,"ck":8698,"Kent":8699,"##erre":8700,"##lld":8701,"fettle":8702,"final":8703,"##EST":8704,"##igue":8705,"Fil":8706,"bosom":8707,"Secondly":8708,"era":8709,"injur":8710,"WI":8711,"cured":8712,"card":8713,"##wich":8714,"##upiter":8715,"hea":8716,"gé":8717,"cited":8718,"breaking":8719,"FOR":8720,"belongs":8721,"##teth":8722,"accounted":8723,"direc":8724,"Log":8725,"Ni":8726,"##akers":8727,"Indian":8728,"Gi":8729,"##Cr":8730,"Temper":8731,"##anm":8732,"embrace":8733,"Marg":8734,"Philosoph":8735,"nobis":8736,"harm":8737,"##ault":8738,"auf":8739,"##edient":8740,"roots":8741,"##dam":8742,"##ifted":8743,"stood":8744,"##ulf":8745,"##edt":8746,"##erat":8747,"Pom":8748,"misery":8749,"Homer":8750,"amend":8751,"relates":8752,"##wt":8753,"mach":8754,"##form":8755,"depends":8756,"recommended":8757,"againlt":8758,"separated":8759,"cela":8760,"\"(":8761,"##peak":8762,"pars":8763,"consists":8764,"##pers":8765,"##lé":8766,"zs":8767,"i4":8768,"fibi":8769,"##aws":8770,"##UC":8771,"teeth":8772,"thlat":8773,"Regard":8774,"birds":8775,"##zing":8776,"lear":8777,"esse":8778,"cauf":8779,"acknowledged":8780,"##90":8781,"##atry":8782,"exact":8783,"prejudice":8784,"né":8785,"gratitude":8786,"Tax":8787,"bount":8788,"produces":8789,"##21":8790,"pays":8791,"df":8792,"Trees":8793,"##orus":8794,"fucc":8795,"Rad":8796,"##oid":8797,"##inum":8798,"poflible":8799,"hommes":8800,"Maid":8801,"ounce":8802,"arguments":8803,"Sid":8804,"notion":8805,"##kins":8806,"##ppe":8807,"##olas":8808,"Praise":8809,"fish":8810,"VW":8811,"fierce":8812,"irt":8813,"Hard":8814,"Sunday":8815,"##ciation":8816,"##LES":8817,"indulg":8818,"##hal":8819,"cost":8820,"upwards":8821,"##pé":8822,",&":8823,"governed":8824,"excess":8825,"ric":8826,"infinitely":8827,"convince":8828,"tL":8829,"Officer":8830,"Nap":8831,"##mony":8832,"explained":8833,"evidently":8834,"ounces":8835,"amn":8836,"##fius":8837,"Cho":8838,"share":8839,"fant":8840,"Mars":8841,"Iron":8842,"anfw":8843,"leads":8844,"##embrance":8845,"fow":8846,"distress":8847,"ned":8848,"uniform":8849,"Vit":8850,"Saxon":8851,"Cure":8852,"##erog":8853,"offices":8854,"##mb":8855,"Young":8856,"legs":8857,"possibly":8858,"Inches":8859,"ID":8860,"vessel":8861,"Eft":8862,"Act":8863,"##lead":8864,"rar":8865,"ledge":8866,"Matt":8867,"discharged":8868,"statute":8869,"total":8870,"policy":8871,"vu":8872,"excite":8873,"##atical":8874,"##ocation":8875,"annual":8876,"figures":8877,"##̂te":8878,"##icacy":8879,"als":8880,"##night":8881,"Alb":8882,"Authors":8883,"Fat":8884,"counsel":8885,"parte":8886,".....":8887,"Barn":8888,"Cn":8889,"##olic":8890,"Simon":8891,"Error":8892,"tranqu":8893,"Health":8894,"compet":8895,"refpec":8896,"terror":8897,"popular":8898,"Apostle":8899,"##ppo":8900,"100":8901,"proceedings":8902,"##24":8903,"Benefit":8904,"posed":8905,"relative":8906,"hyn":8907,"##usted":8908,"expected":8909,"Fate":8910,"perd":8911,"##olk":8912,"##igo":8913,"dispute":8914,"plent":8915,"400":8916,"hunt":8917,"lem":8918,"##OUR":8919,"signs":8920,"assert":8921,"friendship":8922,"ys":8923,"fra":8924,"Nic":8925,"##vre":8926,"attending":8927,"noft":8928,"Liqu":8929,"minutes":8930,"Parties":8931,"EL":8932,"##Ar":8933,"adher":8934,"##lique":8935,"Lines":8936,"##ofed":8937,"Ifa":8938,"hort":8939,"Discourse":8940,"oF":8941,"vow":8942,"Tell":8943,"vices":8944,"woods":8945,"approved":8946,"deter":8947,"Brethren":8948,"].":8949,"##ulated":8950,"loving":8951,"wlh":8952,"Muf":8953,"Others":8954,"swe":8955,"beheld":8956,"##iere":8957,"Bran":8958,"foregoing":8959,"eager":8960,"firength":8961,"1M":8962,"##pid":8963,"Monarch":8964,"indiffer":8965,"illi":8966,"Cod":8967,"Ban":8968,"bew":8969,"habe":8970,"clouds":8971,"Dead":8972,"##avours":8973,"ceived":8974,"##-,":8975,"criminal":8976,"request":8977,"horn":8978,"GE":8979,"fure":8980,"tub":8981,"Pall":8982,"##entment":8983,"##ihip":8984,"lou":8985,"##lain":8986,"##ccs":8987,"rb":8988,"##tha":8989,"ina":8990,"tale":8991,"alike":8992,"forfe":8993,"Exit":8994,"##fing":8995,"nil":8996,"buf":8997,"##wl":8998,"Ix":8999,"##kl":9000,"##zd":9001,"Andrew":9002,"##lds":9003,"##you":9004,"major":9005,"tid":9006,"##uir":9007,"dism":9008,"éto":9009,"pern":9010,"Points":9011,"Ministers":9012,"cogn":9013,"Ray":9014,"##34":9015,"repeat":9016,"Indians":9017,"##27":9018,"ime":9019,"WIL":9020,"##fhip":9021,"curs":9022,"urn":9023,"betray":9024,"rT":9025,"nes":9026,"parce":9027,"IO":9028,"##37":9029,"##encies":9030,"pope":9031,"Tru":9032,"Build":9033,"fourteen":9034,"weary":9035,"##ée":9036,"##ilng":9037,"hone":9038,"quia":9039,"converted":9040,"parish":9041,"Cicero":9042,"Seven":9043,"##ounce":9044,"##pherd":9045,"endeavours":9046,"Pel":9047,"ira":9048,"##certain":9049,"##thl":9050,"'..":9051,"Natural":9052,"NO":9053,"breach":9054,"##onis":9055,"Aid":9056,"##ifing":9057,"quot":9058,"##Rf":9059,"iE":9060,"Ig":9061,"Lot":9062,"##tb":9063,"inex":9064,"Self":9065,"Herod":9066,"moving":9067,"theirs":9068,"mile":9069,"05":9070,"grounds":9071,"Dy":9072,"##ourses":9073,"punish":9074,"##aln":9075,"Defendant":9076,"speed":9077,"Pof":9078,"exce":9079,"iT":9080,"##wel":9081,"cft":9082,"plenty":9083,"penetr":9084,"excuse":9085,"maintained":9086,"abound":9087,"fois":9088,"refp":9089,"boat":9090,"Battle":9091,"Cup":9092,"##imer":9093,"originally":9094,"Rate":9095,"adopted":9096,"ror":9097,"everlasting":9098,"reckoned":9099,"##ums":9100,"07":9101,"Exerc":9102,"##ulate":9103,"gradually":9104,"despair":9105,"consult":9106,"Cart":9107,"##cfs":9108,"science":9109,"##ibl":9110,"cart":9111,"ministers":9112,"unfortunate":9113,"##uine":9114,"Repent":9115,"Poly":9116,"sale":9117,"amiable":9118,"##annel":9119,"objet":9120,"morn":9121,"##ION":9122,"Dei":9123,"##ingham":9124,"established":9125,"Sides":9126,"prudence":9127,"Disc":9128,"Fred":9129,"territ":9130,"observes":9131,"##pital":9132,"inflamm":9133,"designs":9134,"Dift":9135,"irregular":9136,"##98":9137,"thorough":9138,"dream":9139,"thalt":9140,"alien":9141,"behalf":9142,"AE":9143,"sets":9144,"eh":9145,"dern":9146,"obvious":9147,"forbid":9148,"##cin":9149,"notre":9150,"Michael":9151,"##Aion":9152,"##ieurs":9153,"gou":9154,"touching":9155,"Christianity":9156,"##36":9157,"Louis":9158,"##pass":9159,"breadth":9160,"##tier":9161,"5o":9162,"refus":9163,"lend":9164,"Pieces":9165,"unjust":9166,"Efl":9167,"Street":9168,"homin":9169,"Secretary":9170,"Apostles":9171,"vex":9172,"Dublin":9173,"contented":9174,"##mus":9175,"adapt":9176,"bury":9177,"Mah":9178,"##tered":9179,"Proc":9180,"##fJ":9181,"Pcr":9182,"fireet":9183,"Item":9184,"toi":9185,"##agh":9186,"openly":9187,"Fab":9188,"Still":9189,"Bott":9190,"via":9191,"##lying":9192,"Than":9193,"fug":9194,"500":9195,"##outs":9196,"##tius":9197,"CHRIST":9198,"islands":9199,"Bond":9200,"##andi":9201,"gri":9202,"##gain":9203,"fenf":9204,"celle":9205,"##otions":9206,"beseech":9207,"Own":9208,"##tions":9209,"##ects":9210,"cometh":9211,"##orld":9212,"Jh":9213,"xvi":9214,"consequences":9215,"B3":9216,"##lat":9217,"encre":9218,"Hopes":9219,"##ections":9220,"Whose":9221,"Ward":9222,"##umption":9223,"&-":9224,"fufficient":9225,"coach":9226,"continues":9227,"##izes":9228,"Province":9229,"Ways":9230,"mass":9231,"Dise":9232,"suddenly":9233,"Five":9234,"##bac":9235,"##iei":9236,"Learning":9237,"##ifp":9238,"Abs":9239,"##56":9240,"standing":9241,"Proportion":9242,"Star":9243,"wvas":9244,"prosec":9245,"observing":9246,"dut":9247,"fce":9248,"yes":9249,"ym":9250,"fubj":9251,"##tration":9252,"##fio":9253,"##1i":9254,"ark":9255,"fbr":9256,"charges":9257,"Tart":9258,"loy":9259,"omitted":9260,"##igl":9261,"efq":9262,"pofl":9263,"##istry":9264,"Creature":9265,"Kin":9266,"##ilic":9267,"Garden":9268,"IR":9269,"##chus":9270,"afi":9271,"deemed":9272,"cau":9273,"observations":9274,"tet":9275,"##iorum":9276,"verd":9277,"eum":9278,"ild":9279,"Ladies":9280,"gal":9281,"pursued":9282,"tue":9283,"##took":9284,"ung":9285,"Dod":9286,"ane":9287,"widow":9288,"I0":9289,"wives":9290,"Plea":9291,"##pofe":9292,"extensive":9293,"grateful":9294,"same":9295,"becoming":9296,"inconven":9297,"Credit":9298,"priests":9299,"ME":9300,"Sentence":9301,"##bri":9302,"##QU":9303,"understanding":9304,"opposed":9305,"##cian":9306,"poison":9307,"Leave":9308,"papers":9309,"slaves":9310,"##enses":9311,"withl":9312,"##uled":9313,"Exchequer":9314,"Sem":9315,"##rec":9316,"torn":9317,"Sus":9318,"##iflh":9319,"Import":9320,"righteousness":9321,"minute":9322,"Bird":9323,"Bru":9324,"splend":9325,"Jones":9326,"pac":9327,"##57":9328,"tol":9329,"##etic":9330,"eri":9331,"painted":9332,"Shillings":9333,"##ifis":9334,"caution":9335,"Ped":9336,"inhab":9337,"current":9338,"gt":9339,"conne":9340,"Dig":9341,"Vess":9342,"position":9343,"vengeance":9344,"memor":9345,"Tower":9346,"##De":9347,"##lelf":9348,"lake":9349,"remote":9350,"Paf":9351,"Ideas":9352,"##zn":9353,"rcl":9354,"extr":9355,"##ania":9356,"Chrilt":9357,"ticular":9358,"xiii":9359,"twas":9360,"##tho":9361,"auffi":9362,"ery":9363,"##rol":9364,"ithe":9365,"##nda":9366,"thiat":9367,"forming":9368,"assist":9369,"spare":9370,"irre":9371,"keeps":9372,"##onc":9373,"Jam":9374,"temps":9375,"Flower":9376,"funk":9377,"Dean":9378,"prophets":9379,"ert":9380,"ips":9381,"Plaintiff":9382,"honours":9383,"ood":9384,"##rets":9385,"fuit":9386,"sorry":9387,"##ado":9388,"liver":9389,"affl":9390,"Milton":9391,"Security":9392,"##udent":9393,"fatisfa":9394,"Payment":9395,"lav":9396,"creation":9397,"Spiritual":9398,"mess":9399,"Maf":9400,"requis":9401,"reduce":9402,"pic":9403,"frag":9404,"overt":9405,"Vir":9406,"unworthy":9407,"Ile":9408,"confusion":9409,"##ibr":9410,"sI":9411,"privileges":9412,"approve":9413,"##them":9414,"hollow":9415,"##allen":9416,"interm":9417,"##fre":9418,"aC":9419,"Alexand":9420,"##iva":9421,"##oso":9422,"experien":9423,"##venty":9424,"flies":9425,"##qt":9426,"relations":9427,"##:;":9428,"Crom":9429,"LETTER":9430,"##ulr":9431,"receives":9432,"Hay":9433,"##iez":9434,"SO":9435,"hii":9436,"interpret":9437,"Bilhop":9438,"vt":9439,"##areth":9440,"Deb":9441,"##urr":9442,"##rof":9443,"Thle":9444,"abandon":9445,"subl":9446,"rear":9447,"acce":9448,"fath":9449,"firi":9450,"abundance":9451,"Winter":9452,"Mif":9453,"Prin":9454,"Dark":9455,"##alion":9456,"abide":9457,"Ell":9458,"leagues":9459,"century":9460,"mall":9461,"Medi":9462,"##fll":9463,"doctrine":9464,"##ooo":9465,"bounds":9466,"##imin":9467,"ove":9468,"uses":9469,"nion":9470,"vn":9471,"redd":9472,"Hal":9473,"bout":9474,"riot":9475,"##eeks":9476,"##alties":9477,"##ucing":9478,"Beginning":9479,"Brown":9480,"conveyed":9481,"returns":9482,"gran":9483,"##jn":9484,"reff":9485,"##iday":9486,"ridiculous":9487,"Mef":9488,"Yea":9489,"ja":9490,"induced":9491,"##fb":9492,"EP":9493,"##arg":9494,"##phere":9495,"##:-":9496,"cub":9497,"Commission":9498,"##VIII":9499,"infi":9500,"Pour":9501,"Vis":9502,"signify":9503,"refpea":9504,"corruption":9505,"dn":9506,"labours":9507,"bridge":9508,"moss":9509,"Sor":9510,"motives":9511,"##juft":9512,"##lih":9513,"source":9514,"##iftance":9515,"##,'":9516,"defi":9517,"##pture":9518,"tus":9519,"jug":9520,"Mas":9521,"##54":9522,"Corpor":9523,"##alled":9524,"##iger":9525,"##aver":9526,"working":9527,"Song":9528,"Arts":9529,"Door":9530,"tribe":9531,"##itutions":9532,"obst":9533,"promises":9534,"##otted":9535,"rude":9536,"##aton":9537,"##IP":9538,"Towns":9539,"Schol":9540,"angle":9541,"##cefs":9542,"temporal":9543,"r6":9544,"natives":9545,"##ench":9546,"Virgil":9547,"##icu":9548,"##thr":9549,"scarcely":9550,"girl":9551,"##oks":9552,"renders":9553,"pleaded":9554,"Marquis":9555,"Bul":9556,"Gil":9557,"##retch":9558,"Parents":9559,"xiv":9560,"tte":9561,"Sb":9562,"referred":9563,"rw":9564,"eli":9565,"lai":9566,"Priest":9567,"ori":9568,"Inv":9569,"marched":9570,"cab":9571,"Oun":9572,"illa":9573,"deceive":9574,"offended":9575,"horrid":9576,"errors":9577,"##iosity":9578,"##ettre":9579,"Jupiter":9580,"Without":9581,"print":9582,"Comfort":9583,"là":9584,"ET":9585,"shewn":9586,"sworn":9587,"republic":9588,"Cav":9589,"Tou":9590,"bou":9591,"##ded":9592,"flag":9593,"PS":9594,"##utl":9595,"##sr":9596,"##93":9597,"fluid":9598,"weakness":9599,"hire":9600,"patron":9601,"terra":9602,"##ecn":9603,"jt":9604,"donner":9605,"tj":9606,"toge":9607,"hd":9608,"##grity":9609,"fla":9610,"suitable":9611,"##itn":9612,"##aired":9613,"##clh":9614,"scripture":9615,"z6":9616,"tip":9617,"clam":9618,"##uz":9619,"unite":9620,"augment":9621,"additional":9622,"Sorrow":9623,"prize":9624,"adding":9625,"dee":9626,"True":9627,"Bills":9628,"##oring":9629,"cree":9630,"fch":9631,"##fto":9632,"farm":9633,"Exod":9634,"favourite":9635,"##isp":9636,"intire":9637,"believing":9638,"##athem":9639,"##afes":9640,"dance":9641,"leading":9642,"##onn":9643,"Question":9644,"Plate":9645,"aven":9646,"##piration":9647,"lll":9648,"Deliver":9649,"##bc":9650,"privilege":9651,"Jt":9652,"load":9653,"Sacrament":9654,"Experience":9655,"Bail":9656,"##anda":9657,"wander":9658,"##erunt":9659,"judic":9660,"ril":9661,"weeks":9662,"persec":9663,"quoi":9664,"##INE":9665,"arises":9666,"##anges":9667,"Africa":9668,"abol":9669,"Comment":9670,"wvhich":9671,"jury":9672,"##part":9673,"commence":9674,"Major":9675,"Pc":9676,"##ithes":9677,"'·":9678,"##idian":9679,"arn":9680,"##pring":9681,"Obje":9682,"Cape":9683,"Back":9684,"##usive":9685,"pomp":9686,"Story":9687,"applic":9688,"Carth":9689,"evils":9690,"attacked":9691,"gifts":9692,"##pired":9693,"##vw":9694,"##lec":9695,"##keth":9696,"sixth":9697,"contribute":9698,"##RD":9699,"inheritance":9700,"Ordin":9701,"anrd":9702,"##picion":9703,"sla":9704,"cnt":9705,"Verse":9706,"grain":9707,"beau":9708,"lk":9709,"mixture":9710,"Relation":9711,"##gc":9712,"entering":9713,"tation":9714,"##26":9715,"##urp":9716,"Prem":9717,"preaching":9718,"PO":9719,"Play":9720,"ofi":9721,"whlich":9722,"amid":9723,"saying":9724,"Loan":9725,"incor":9726,"attra":9727,"donc":9728,"##inds":9729,"tlat":9730,"##fj":9731,"oon":9732,"shame":9733,"rac":9734,"##fque":9735,"nid":9736,"restored":9737,"Suffer":9738,"bru":9739,"instances":9740,"christian":9741,"Want":9742,"liberal":9743,"Psalm":9744,"##err":9745,"1V":9746,"Fame":9747,"host":9748,"##ingly":9749,"Board":9750,"Tour":9751,"très":9752,"tand":9753,"Memory":9754,"Sick":9755,"##lefi":9756,"JE":9757,"Bac":9758,"humanity":9759,"coat":9760,"Perhaps":9761,"encourage":9762,"Italian":9763,"providence":9764,"Saf":9765,"##Pr":9766,"##oral":9767,"Compan":9768,"armies":9769,"##IG":9770,"##nty":9771,"cp":9772,"##He":9773,"##ourse":9774,"##Jo":9775,"gently":9776,"hiis":9777,"inclination":9778,"Fur":9779,"##pert":9780,"waited":9781,"##pendicular":9782,"##lot":9783,"##juf":9784,"##qlu":9785,"##this":9786,"verf":9787,"rant":9788,"##uds":9789,"Soph":9790,"summer":9791,"urged":9792,"##ifit":9793,"defeated":9794,"Chrifl":9795,"##key":9796,"Sheriff":9797,"landed":9798,"Circle":9799,"rebu":9800,"##lels":9801,"Innoc":9802,"extravag":9803,"##ITH":9804,"heartily":9805,"Fri":9806,"log":9807,"##orms":9808,"neighbouring":9809,"thereon":9810,"presume":9811,"##arine":9812,"Fol":9813,"##OUN":9814,"contempl":9815,"Quality":9816,"##eder":9817,"##ograph":9818,"##95":9819,"repentance":9820,"ingenious":9821,"mofl":9822,",]":9823,"##ply":9824,"fink":9825,"entertained":9826,"dat":9827,"Cert":9828,"Pul":9829,"##jour":9830,"Mc":9831,"LX":9832,"Stan":9833,"incapable":9834,"deceit":9835,"##mng":9836,"Ki":9837,"Iz":9838,"lip":9839,"7s":9840,"lal":9841,"millions":9842,"##onl":9843,"telling":9844,"vio":9845,"chair":9846,"deeds":9847,"mny":9848,"Senate":9849,"##vant":9850,"constantly":9851,"feared":9852,"iir":9853,"##agree":9854,"##96":9855,"##oper":9856,"/-":9857,"JI":9858,"7r":9859,"quest":9860,"Idea":9861,"descended":9862,"dominion":9863,"##ithed":9864,"Species":9865,"manor":9866,"omnibus":9867,"expedition":9868,"Fro":9869,"##nit":9870,"Presence":9871,"ope":9872,"Foundation":9873,"##ANT":9874,"anp":9875,"acquaintance":9876,"belief":9877,"##rio":9878,"##cls":9879,"conno":9880,"wra":9881,"##cha":9882,"benev":9883,"##rii":9884,"appet":9885,"maf":9886,"Deity":9887,"trois":9888,"melt":9889,"##ificate":9890,"##wd":9891,"street":9892,"wilh":9893,"whither":9894,"appearing":9895,"discern":9896,"oni":9897,"capit":9898,"Haw":9899,"hare":9900,"##fm":9901,"United":9902,"tide":9903,"abilities":9904,"subject":9905,"Leon":9906,"##1t":9907,"advers":9908,"ux":9909,"##rea":9910,"lur":9911,"overcome":9912,"Tow":9913,"uncommon":9914,"Sacrifice":9915,"o6":9916,"Pros":9917,"##cad":9918,"pick":9919,"revealed":9920,"fails":9921,"Chrit":9922,"entrance":9923,"##enger":9924,"annexed":9925,"pace":9926,"sho":9927,"vs":9928,"##ungs":9929,"##asy":9930,"Home":9931,"Situ":9932,"ole":9933,"Creator":9934,",,.":9935,"sir":9936,"Clar":9937,"##erness":9938,"##log":9939,"say":9940,"##ustoms":9941,"##ifll":9942,"##aut":9943,"!!":9944,"allo":9945,"sou":9946,"##85":9947,"##idt":9948,"Sel":9949,"infall":9950,"Rights":9951,"vin":9952,"##cra":9953,"Omn":9954,"6th":9955,"##iil":9956,"##hd":9957,"##orter":9958,"ars":9959,"##ustrious":9960,"##aan":9961,"##83":9962,"tas":9963,"confir":9964,"afe":9965,"pere":9966,"fea":9967,"ito":9968,"subjet":9969,"Declaration":9970,"##ivc":9971,"Aa":9972,"##OG":9973,"##ailed":9974,"proofs":9975,"itl":9976,"prisoners":9977,"impe":9978,"##rons":9979,"yon":9980,"##fons":9981,"##bro":9982,"nel":9983,"fere":9984,"tures":9985,"relieve":9986,"##ifcop":9987,"Az":9988,"dominions":9989,"trembling":9990,"music":9991,"##itat":9992,"##quet":9993,"peo":9994,"infam":9995,"##nent":9996,"tied":9997,"Univers":9998,"accus":9999,"##vil":10000,"deceived":10001,"Mu":10002,"worldly":10003,"'.'":10004,"##cies":10005,"Wild":10006,"##elly":10007,".:.":10008,"##ago":10009,"purple":10010,"Trinity":10011,"pronounced":10012,"quelques":10013,"Minister":10014,"ofe":10015,"substance":10016,"lee":10017,"Left":10018,"SY":10019,"lick":10020,"edition":10021,"##ways":10022,"quarters":10023,"Space":10024,"##osity":10025,"Trial":10026,"##born":10027,"##Er":10028,"merchant":10029,"##fta":10030,"##him":10031,"actions":10032,"Bas":10033,"fé":10034,"ied":10035,"##low":10036,"##fulness":10037,"lean":10038,"injury":10039,"##Ci":10040,"hes":10041,"conti":10042,"##cnce":10043,"admire":10044,"qi":10045,"##wing":10046,"vas":10047,"pris":10048,"##eris":10049,"##crit":10050,"services":10051,"scorn":10052,"Row":10053,"##enit":10054,"mend":10055,"thb":10056,"thunder":10057,"torment":10058,"hint":10059,"ries":10060,"Suff":10061,"ride":10062,"##adors":10063,"hus":10064,"obligation":10065,"mou":10066,"oll":10067,"XIII":10068,"gli":10069,"wat":10070,"frill":10071,"##they":10072,"rays":10073,"presents":10074,"match":10075,"result":10076,"##1e":10077,"&'":10078,"##iast":10079,"1s":10080,"Put":10081,"filch":10082,"##redi":10083,"Seeds":10084,"conve":10085,"bag":10086,"smooth":10087,"dcf":10088,"ick":10089,"ene":10090,"Certain":10091,"uti":10092,"##ella":10093,"##ière":10094,"Merchant":10095,"Tay":10096,"motions":10097,"barbarous":10098,"dice":10099,"Ren":10100,"##UD":10101,"##iners":10102,"Shake":10103,"unable":10104,"nan":10105,"Eld":10106,"rud":10107,"##ecess":10108,"##uum":10109,"improved":10110,"Venus":10111,"tly":10112,"Lanc":10113,"##MON":10114,"##jy":10115,"##erman":10116,"##bility":10117,"##oribus":10118,"revol":10119,"Ss":10120,"shore":10121,"##nel":10122,"##uple":10123,"heavens":10124,"Physic":10125,"murm":10126,"Eccles":10127,"mille":10128,"ana":10129,"Turks":10130,"Bene":10131,"Ori":10132,"##cils":10133,"Gene":10134,"##qi":10135,"vere":10136,"##FF":10137,"Dryden":10138,"-..":10139,"eating":10140,"lime":10141,"curse":10142,"prompt":10143,"##eta":10144,"##Cs":10145,"experiment":10146,"Principle":10147,"barren":10148,"avant":10149,"heed":10150,"Stand":10151,"bv":10152,"conscious":10153,"##hon":10154,"fiould":10155,"##Cl":10156,"##illiam":10157,"Hugh":10158,"pau":10159,"##llen":10160,"eal":10161,"During":10162,"compleat":10163,"ordained":10164,"GR":10165,"##arrison":10166,"Fever":10167,"surrender":10168,"##Lr":10169,"Temp":10170,"dub":10171,"Profe":10172,"ary":10173,"##iderable":10174,"communicated":10175,"1r":10176,"School":10177,"Rod":10178,"Lang":10179,"Martin":10180,"cern":10181,"worn":10182,"##ario":10183,"Sorts":10184,"##lius":10185,"##uy":10186,"##vé":10187,"negl":10188,"##iio":10189,"Diam":10190,"kindness":10191,"Milit":10192,"è":10193,"##An":10194,"abhor":10195,"fag":10196,"punishment":10197,"rightly":10198,"Cloud":10199,"Ik":10200,"serves":10201,"Wid":10202,"Quarter":10203,"grass":10204,"Printed":10205,"##utr":10206,"malice":10207,"iat":10208,"##ically":10209,"Yo":10210,"awful":10211,"lity":10212,"gue":10213,"surv":10214,"regarded":10215,"##32":10216,"happily":10217,"##iliation":10218,"seize":10219,"anch":10220,"vigour":10221,"##ermen":10222,"Courage":10223,"##ruption":10224,"Mail":10225,"escaped":10226,"idem":10227,"Patri":10228,"Park":10229,"reported":10230,"medicine":10231,"Beth":10232,"artific":10233,"rcc":10234,"lock":10235,"restore":10236,"banks":10237,"##hole":10238,"Anti":10239,"##ifully":10240,"prie":10241,"cheer":10242,"lj":10243,"Jr":10244,"##esy":10245,"Thro":10246,"##omed":10247,"effects":10248,"changes":10249,"Wl":10250,"Communion":10251,"propriety":10252,"miracles":10253,"joys":10254,"##plicity":10255,"##aze":10256,"##tees":10257,"##ifn":10258,"ders":10259,"Little":10260,"##py":10261,"Full":10262,"Benj":10263,"avoient":10264,"Wicked":10265,"##allow":10266,"Change":10267,"gor":10268,"##eo":10269,"##prize":10270,"getting":10271,"##forth":10272,"termin":10273,"##abli":10274,"##upt":10275,"Treas":10276,"°.":10277,"doors":10278,"lus":10279,"school":10280,"wounds":10281,"upp":10282,"saving":10283,"##aur":10284,"Concern":10285,"160":10286,"Tot":10287,"##edies":10288,"clerk":10289,"Edinburgh":10290,"##athan":10291,"4o":10292,"prat":10293,"luch":10294,"belly":10295,"Glass":10296,"##can":10297,"fitted":10298,"mens":10299,"ceive":10300,"sixty":10301,"drops":10302,"pent":10303,"##inem":10304,"##afure":10305,"##abbath":10306,"gens":10307,"##97":10308,"Notes":10309,"yards":10310,"suff":10311,"Polit":10312,"Wt":10313,"CE":10314,"principally":10315,"##andal":10316,"##flr":10317,"Fine":10318,"flip":10319,"teft":10320,"study":10321,"baptized":10322,"ais":10323,"##ecion":10324,"perfectly":10325,"himfelf":10326,"alia":10327,"Skin":10328,"considered":10329,"comment":10330,"division":10331,"Rea":10332,"ght":10333,"infirm":10334,"Aaron":10335,"##iel":10336,"supreme":10337,"genus":10338,"##94":10339,"fot":10340,"commission":10341,"struck":10342,"t6":10343,"##xc":10344,"ua":10345,"Reft":10346,"--.":10347,"*-":10348,"dred":10349,"Cer":10350,"Mt":10351,"erit":10352,"sust":10353,"vap":10354,"sue":10355,"siege":10356,"provisions":10357,"propose":10358,"defended":10359,"Cas":10360,"##ifto":10361,"perfet":10362,"Offence":10363,"Greg":10364,"bills":10365,"seas":10366,"membr":10367,"altered":10368,"##unities":10369,"Sett":10370,"Eternal":10371,"Ceremon":10372,"##vels":10373,"Ze":10374,"##eling":10375,"hig":10376,"##ervations":10377,"brief":10378,"cutting":10379,"##lil":10380,"doubted":10381,"check":10382,"suo":10383,"##cor":10384,"Roots":10385,"quoque":10386,"##init":10387,"painful":10388,"welcome":10389,"mons":10390,"Edm":10391,"Anth":10392,"declares":10393,"fci":10394,"##arge":10395,"..-":10396,"):":10397,"ascend":10398,"ddy":10399,"thd":10400,"Thous":10401,"tone":10402,"reat":10403,"deeply":10404,"##ucoup":10405,"Other":10406,"##ogue":10407,"##ront":10408,"whit":10409,"Ita":10410,"##END":10411,"nI":10412,"##erts":10413,"tained":10414,"##tell":10415,"diligent":10416,"Cities":10417,"reaf":10418,"comprehend":10419,"concealed":10420,"Thanks":10421,"##enefs":10422,"r4":10423,"ze":10424,"uno":10425,"edge":10426,"NT":10427,"##perate":10428,"Canter":10429,"complaint":10430,"Vel":10431,"Dignity":10432,"Ess":10433,"lef":10434,"drown":10435,"Ax":10436,"140":10437,"gc":10438,"Righteous":10439,"aqu":10440,"##fad":10441,"BY":10442,"lly":10443,"redeem":10444,"Sug":10445,"fion":10446,"fairly":10447,"##arded":10448,"Cs":10449,"vl":10450,"##afle":10451,"Rock":10452,"##tiers":10453,"tedious":10454,"friendly":10455,"/;":10456,"linen":10457,"GO":10458,"jours":10459,"CR":10460,"Cad":10461,"##gage":10462,"'?":10463,"inm":10464,"chr":10465,"eighteen":10466,",(":10467,"fR":10468,"##icted":10469,"sugg":10470,"efforts":10471,"Vert":10472,"leis":10473,"excited":10474,"##dem":10475,"writh":10476,"Madame":10477,"dwelt":10478,"Real":10479,"##verted":10480,"necessarily":10481,"kingdoms":10482,"Opportunity":10483,"Piety":10484,"Suit":10485,"##gent":10486,"peop":10487,"Mond":10488,"wal":10489,"Has":10490,"Writing":10491,"butter":10492,"##och":10493,"drinking":10494,"r7":10495,"4t":10496,"passions":10497,"nity":10498,"##cth":10499,"levied":10500,"Make":10501,"bend":10502,"befo":10503,"wax":10504,"centre":10505,"Foreign":10506,"Repentance":10507,"deserved":10508,"ocean":10509,"circumstance":10510,"dispatch":10511,"GC":10512,"Square":10513,"noon":10514,"Sound":10515,"previous":10516,"##crates":10517,"Chril":10518,"rk":10519,"Fee":10520,"Pier":10521,"##fla":10522,"##ioi":10523,"Trad":10524,"yourselves":10525,":..":10526,"difficulties":10527,"dul":10528,"thes":10529,"denomin":10530,"Roger":10531,"##tering":10532,"##rive":10533,"abo":10534,"wheat":10535,"##ALL":10536,"delicate":10537,"##landers":10538,"inhabit":10539,"plunder":10540,"##ala":10541,"capacity":10542,"##olis":10543,"##ftl":10544,"nly":10545,"dangers":10546,"Crime":10547,"exempl":10548,"##So":10549,"Bt":10550,"ree":10551,"##adv":10552,"Sale":10553,"Clare":10554,"##idl":10555,"##elr":10556,"Cold":10557,"Evening":10558,"ambit":10559,"##86":10560,"loco":10561,"honor":10562,"##ancery":10563,"##fee":10564,"sharp":10565,"mys":10566,"moy":10567,"##acent":10568,"Hos":10569,"lain":10570,"##udi":10571,"##ross":10572,"rout":10573,"##91":10574,"diet":10575,"innocence":10576,"Grief":10577,"pole":10578,"Ith":10579,"manife":10580,"bly":10581,"Ignor":10582,"Dar":10583,"Waters":10584,"##cw":10585,"iniquity":10586,"XVI":10587,"cation":10588,"tC":10589,"Alle":10590,"pleated":10591,"impl":10592,"Asia":10593,"rapid":10594,"ND":10595,"surrounded":10596,"nice":10597,"sat":10598,"4to":10599,"Hung":10600,"Itr":10601,"##eca":10602,"grands":10603,"Han":10604,"drank":10605,"nevertheless":10606,"adapted":10607,"##izen":10608,"___":10609,"WE":10610,"admirable":10611,"AA":10612,"adore":10613,"harbour":10614,"##IO":10615,"##irer":10616,"##iT":10617,"##fton":10618,"dren":10619,"prad":10620,"disple":10621,"lour":10622,"noun":10623,"fti":10624,"cla":10625,"decay":10626,"lodged":10627,"##orc":10628,"gun":10629,"£.":10630,"Dre":10631,"Pont":10632,"oit":10633,"##riages":10634,"disgrace":10635,"##faid":10636,"concerns":10637,"eut":10638,"##alle":10639,"Desire":10640,"fis":10641,"##ono":10642,"##lefia":10643,"plaint":10644,"baron":10645,"Prel":10646,"##inqu":10647,"Bacon":10648,"treach":10649,"ien":10650,"narr":10651,"ainfi":10652,"Elle":10653,"coup":10654,"worst":10655,"accommod":10656,"intelligence":10657,"WT":10658,"##acl":10659,"##iculty":10660,"bcc":10661,"cares":10662,"##ongues":10663,"rang":10664,"purchased":10665,"comply":10666,"ploy":10667,"Refp":10668,"becaule":10669,"fuf":10670,"Princess":10671,"Canon":10672,"stir":10673,"Bible":10674,"ken":10675,"adminis":10676,"qualified":10677,"None":10678,"walking":10679,"Aj":10680,"Reward":10681,"##ilm":10682,"##war":10683,"reconcil":10684,"ial":10685,"Apof":10686,"mef":10687,"supplied":10688,"Lay":10689,"Sab":10690,"parted":10691,"##tain":10692,"induce":10693,"##han":10694,"Impro":10695,"translated":10696,"##ram":10697,"##cts":10698,"ville":10699,"Confider":10700,"##Fe":10701,"##itan":10702,"[.":10703,"-/":10704,"flore":10705,"Causes":10706,"##84":10707,"Soon":10708,"##ombre":10709,"Habit":10710,"##irent":10711,"efle":10712,"Idol":10713,"woe":10714,"Var":10715,"##iee":10716,"tenth":10717,"ried":10718,"Diss":10719,"intitled":10720,"operations":10721,"secured":10722,"##ITY":10723,"neral":10724,"lut":10725,"Custom":10726,"feeble":10727,"##flip":10728,"130":10729,"Js":10730,"Riches":10731,"Hat":10732,"spend":10733,"rival":10734,"ras":10735,"##atient":10736,"mould":10737,"skin":10738,"Presby":10739,"##Ut":10740,"bn":10741,"seventh":10742,"chain":10743,"clim":10744,"thefe":10745,"tempted":10746,"discovery":10747,"##andum":10748,"jou":10749,"Freed":10750,"merciful":10751,"##vcs":10752,"ake":10753,"Theod":10754,"sive":10755,"cient":10756,"Resolution":10757,"latitude":10758,"cular":10759,"Sex":10760,"cll":10761,"candid":10762,"supposing":10763,"requisite":10764,"sixteen":10765,"wherefore":10766,"oppre":10767,"dal":10768,"Ils":10769,"##Pe":10770,"Sermon":10771,"caught":10772,"affection":10773,"##fold":10774,"2S":10775,"deserves":10776,"flt":10777,"drag":10778,"gallant":10779,"invited":10780,"-!":10781,"Extra":10782,"##iS":10783,"Food":10784,"ug":10785,"signal":10786,"obedient":10787,"##phy":10788,"beaucoup":10789,"obscure":10790,"##qe":10791,"persuade":10792,"lait":10793,"cruelty":10794,"##natural":10795,"..'":10796,"aL":10797,"##icat":10798,"mans":10799,"zealous":10800,"essential":10801,",*":10802,"Sweet":10803,"alnd":10804,"##ecl":10805,"T7":10806,"generation":10807,"##ernacle":10808,"assembly":10809,"5th":10810,"##ufes":10811,"vith":10812,"Grat":10813,"imagin":10814,"aga":10815,"##iens":10816,"lap":10817,"graces":10818,"..,":10819,"##aeth":10820,"equity":10821,".&":10822,"Ruff":10823,"Alter":10824,"Sinners":10825,"Lr":10826,"Thir":10827,"withal":10828,"##bacco":10829,"pled":10830,"##umque":10831,"##crn":10832,"ding":10833,"##ATI":10834,"Virtues":10835,"box":10836,"create":10837,"feeling":10838,"120":10839,"Lead":10840,"pressed":10841,"Hunt":10842,"woo":10843,"faults":10844,"##istle":10845,"tk":10846,"thyself":10847,"attempts":10848,"overth":10849,"possessed":10850,"flying":10851,"perse":10852,"Ster":10853,"wir":10854,"##onf":10855,"Redeem":10856,"donne":10857,"subje":10858,"inserted":10859,"Satur":10860,"##51":10861,"##ncfs":10862,"nov":10863,"Merit":10864,"CHAR":10865,"ripe":10866,"##iar":10867,"Promise":10868,"##icb":10869,"exhibited":10870,"performance":10871,"mistaken":10872,"##Id":10873,"##ulations":10874,"##gers":10875,"touched":10876,"Consequence":10877,"fils":10878,"genuine":10879,"##ivo":10880,"affords":10881,"lege":10882,"##illery":10883,"elder":10884,"dition":10885,"##wart":10886,"begot":10887,"Burn":10888,"declaring":10889,"ths":10890,"altern":10891,"Appearance":10892,"IW":10893,"tance":10894,"##unque":10895,"##pn":10896,"dered":10897,"acceptable":10898,"Branches":10899,"fg":10900,"reality":10901,"sad":10902,"GoD":10903,"Pf":10904,"hof":10905,"payable":10906,"willingly":10907,"handsome":10908,"Offices":10909,"Chal":10910,"ornament":10911,"veral":10912,"Antio":10913,"nouve":10914,"##clamation":10915,"Englilh":10916,"dispers":10917,"symptoms":10918,"neighbours":10919,"Imperial":10920,"Distance":10921,"Mai":10922,"transfer":10923,"Sail":10924,"horror":10925,"methods":10926,"afflic":10927,"##Or":10928,"Cef":10929,"loon":10930,"castle":10931,"lub":10932,"raising":10933,"##fell":10934,"##idable":10935,"##rix":10936,"caut":10937,"##vt":10938,"##verse":10939,"philosophy":10940,".\"-":10941,"##enne":10942,"encouraged":10943,"charter":10944,"enfor":10945,"##auch":10946,"fufpe":10947,"BUT":10948,"bd":10949,"##cting":10950,"irn":10951,"tert":10952,"##ilb":10953,"##ipot":10954,"profound":10955,"exempt":10956,"##rae":10957,"drove":10958,"##cir":10959,"kno":10960,"nol":10961,"approbation":10962,"exhort":10963,"##eno":10964,"China":10965,"Wel":10966,"##ashion":10967,"shut":10968,"Lincoln":10969,"conditions":10970,"##ming":10971,"##elfare":10972,"dor":10973,"iter":10974,"level":10975,"adjudged":10976,"Plut":10977,"##ignant":10978,"oI":10979,"##ighter":10980,"Necess":10981,"PRO":10982,"tempore":10983,"lalt":10984,"plough":10985,"esteemed":10986,"Fem":10987,"##ela":10988,"##chand":10989,"improvement":10990,"merits":10991,"Wed":10992,"fending":10993,"##itatem":10994,"ibi":10995,"excel":10996,"------":10997,"##olate":10998,"interv":10999,"Ton":11000,"wve":11001,"compare":11002,"Lion":11003,"##ached":11004,"Vous":11005,"##ATH":11006,"sugar":11007,"wore":11008,"##Al":11009,"legisl":11010,"rein":11011,"##́d":11012,"Ae":11013,"recorded":11014,"quantities":11015,"corrupted":11016,"Property":11017,"prodigious":11018,"##iie":11019,"petit":11020,"mentions":11021,"##igate":11022,"Jury":11023,"restr":11024,"prayed":11025,"merry":11026,"Week":11027,"pli":11028,"Moment":11029,"belonged":11030,"ead":11031,"jut":11032,"wretch":11033,"anr":11034,"intere":11035,"Stephen":11036,"Bib":11037,"##orian":11038,"imprison":11039,"existence":11040,"brain":11041,"##92":11042,"regret":11043,"##illion":11044,"tate":11045,"Glou":11046,"Iy":11047,"reap":11048,"Cyr":11049,"soldier":11050,"##\"'":11051,"ati":11052,"accused":11053,"notions":11054,"hatred":11055,"Honourable":11056,"##paration":11057,"doubtful":11058,"walked":11059,"commons":11060,"(:":11061,"Wat":11062,"Warrant":11063,"reached":11064,"story":11065,"ney":11066,"dex":11067,"Athens":11068,"abomin":11069,"md":11070,"unlaw":11071,"igitur":11072,"##agon":11073,"poft":11074,"mae":11075,"Attorney":11076,"depuis":11077,"merchants":11078,"tick":11079,"##mons":11080,"##URE":11081,"ks":11082,"##zek":11083,"indifferent":11084,"vell":11085,"elev":11086,"trifling":11087,"Ram":11088,"aJ":11089,"shews":11090,"Ing":11091,"##87":11092,"##ffing":11093,"describe":11094,"carries":11095,"##God":11096,"influ":11097,"##arice":11098,"agreement":11099,"Contra":11100,"ifi":11101,"sinful":11102,"adul":11103,"Prophets":11104,"##uces":11105,"##TY":11106,"##fur":11107,"acquire":11108,"Tin":11109,"colonies":11110,"##cct":11111,"##gni":11112,"##asted":11113,"dife":11114,"phr":11115,"##eman":11116,"##lj":11117,"##itations":11118,"heure":11119,"llt":11120,"SW":11121,"mie":11122,"Verb":11123,"##afc":11124,"##itia":11125,"cujus":11126,"hail":11127,"stud":11128,"boast":11129,"acres":11130,"##iries":11131,"Horses":11132,"Intent":11133,"meas":11134,"earthly":11135,"admiration":11136,"lun":11137,"HEN":11138,"motive":11139,"nobility":11140,"recovery":11141,"Image":11142,"universally":11143,"##asonable":11144,"theC":11145,"vigorous":11146,"Tn":11147,"college":11148,"lifted":11149,"##ABLE":11150,"charming":11151,"engag":11152,"WY":11153,"unn":11154,"diameter":11155,"experienced":11156,"flee":11157,"Deut":11158,"##ocity":11159,"assure":11160,"ull":11161,"examination":11162,"##terior":11163,"##ucation":11164,"Proceedings":11165,"Charac":11166,"Plato":11167,"##criptions":11168,"##blem":11169,"Provinces":11170,"OL":11171,"##cv":11172,"vote":11173,"Jos":11174,"Dia":11175,"nur":11176,"##oler":11177,"keeper":11178,"Hier":11179,"Road":11180,"lofty":11181,"dinner":11182,"##irp":11183,"serving":11184,"voul":11185,"##acies":11186,"##mark":11187,"thort":11188,"railed":11189,"occa":11190,"avoided":11191,"Iss":11192,"Winds":11193,"##Eted":11194,"7th":11195,"##rep":11196,"##illity":11197,"SCENE":11198,"3i":11199,"Lee":11200,"##icule":11201,"##igible":11202,"kindly":11203,"##odo":11204,"clay":11205,"roi":11206,"irrit":11207,"valour":11208,"grains":11209,"Cut":11210,"revenue":11211,"roy":11212,"Stars":11213,"eorum":11214,"monde":11215,"gether":11216,"wher":11217,"vy":11218,"Conj":11219,"Barb":11220,"possession":11221,"Fourth":11222,"illud":11223,"ascertain":11224,"##Ii":11225,"##riv":11226,"assistance":11227,"(-":11228,"fT":11229,"senses":11230,"Bridge":11231,"anfwer":11232,"##52":11233,"heark":11234,"undoubtedly":11235,"##indre":11236,"lill":11237,"unp":11238,"fL":11239,"exe":11240,"##achment":11241,"lg":11242,"Debts":11243,":)":11244,"##UE":11245,"##iec":11246,"##idis":11247,"noted":11248,"side":11249,"poteft":11250,"reserved":11251,"Whole":11252,"##ifler":11253,"Portugal":11254,"##iion":11255,"passing":11256,"desert":11257,"phy":11258,"##neth":11259,"##arii":11260,"poverty":11261,"perfon":11262,"feule":11263,"Wy":11264,"beaten":11265,"undertake":11266,"Fox":11267,"TW":11268,"mitted":11269,"##oirs":11270,"##adel":11271,"advised":11272,"rce":11273,"Guilt":11274,"6f":11275,"preferred":11276,"trace":11277,"enrich":11278,"qe":11279,"partie":11280,".,.":11281,"thit":11282,"##fey":11283,"##xit":11284,"abuse":11285,"Several":11286,"claims":11287,"conclusion":11288,"Ul":11289,"remov":11290,"globe":11291,"reverence":11292,"##Jr":11293,"eq":11294,"Seat":11295,"archb":11296,"Exe":11297,"##llr":11298,"aggra":11299,"Oi":11300,"ufe":11301,"##quently":11302,"dried":11303,"defp":11304,"Ruin":11305,"hre":11306,"employment":11307,"Phy":11308,"duced":11309,"##zar":11310,"##ationem":11311,"Trouble":11312,"Nous":11313,"rites":11314,"##arians":11315,"balance":11316,"testimony":11317,"himi":11318,"disagree":11319,"trom":11320,"##orth":11321,"appropri":11322,"Monsieur":11323,"choose":11324,"##ustry":11325,"Imag":11326,"feast":11327,"alliance":11328,"fud":11329,"##ulture":11330,"Member":11331,"##cia":11332,"assembled":11333,"##entur":11334,"##wall":11335,"advise":11336,"waiting":11337,"##hb":11338,"ihort":11339,"##vl":11340,"departure":11341,"AG":11342,"fecund":11343,"withdraw":11344,"zi":11345,"##IUS":11346,"lease":11347,"##emblance":11348,"tua":11349,"houle":11350,"##Us":11351,"demands":11352,"##hew":11353,"iid":11354,"fod":11355,"ince":11356,"diseases":11357,"##quire":11358,"##oner":11359,"exceedingly":11360,"hlis":11361,"using":11362,"Sit":11363,"taxes":11364,"Realm":11365,"experiments":11366,"Neighbour":11367,"dcl":11368,"plur":11369,"devoted":11370,"CHA":11371,"growth":11372,"oj":11373,"##Io":11374,"Fitz":11375,"scheme":11376,"##hofe":11377,"##Ot":11378,"Grave":11379,"fruitful":11380,"News":11381,"Hab":11382,"premier":11383,"magis":11384,"##cut":11385,"Patience":11386,"betw":11387,"misfortune":11388,"##velled":11389,"##neur":11390,"travel":11391,"falf":11392,"devotion":11393,"Parish":11394,"eighth":11395,"Parad":11396,"anly":11397,"failing":11398,"borne":11399,"Rebell":11400,"fter":11401,"Twenty":11402,"jr":11403,"safely":11404,"##osopher":11405,"##antin":11406,"ftri":11407,"Choice":11408,"Mist":11409,"##́re":11410,"chan":11411,"##attered":11412,"Any":11413,"Assembly":11414,"##resent":11415,"absence":11416,"reigned":11417,"Genius":11418,"indignation":11419,"Behaviour":11420,"thos":11421,"##illon":11422,"tof":11423,"Meaning":11424,"##aires":11425,"alias":11426,"!)":11427,"Bot":11428,"foun":11429,"Sweden":11430,"Sul":11431,"iot":11432,"Dro":11433,"fiu":11434,"heathen":11435,"draws":11436,"##Ic":11437,"Van":11438,"Defe":11439,"expose":11440,"eaten":11441,"consecr":11442,"Record":11443,"ratio":11444,"ves":11445,"quos":11446,"##.-":11447,"sine":11448,"independent":11449,"##fk":11450,"Alc":11451,"Could":11452,"##ande":11453,"FA":11454,"plane":11455,"ofC":11456,"hec":11457,"polite":11458,"COR":11459,"pernicious":11460,"##but":11461,"Accounts":11462,"##inia":11463,"beings":11464,"certainty":11465,"##itle":11466,"truths":11467,"resolve":11468,"##ffl":11469,"Writings":11470,"diligence":11471,"##':":11472,"wed":11473,"distinguished":11474,"facr":11475,"Consent":11476,"js":11477,"Pas":11478,"ply":11479,"Chriflian":11480,"bol":11481,"sow":11482,"ulc":11483,"Friday":11484,"continuance":11485,"skill":11486,"protest":11487,"dispose":11488,"hul":11489,"##adows":11490,"recip":11491,"##Ti":11492,"American":11493,"Prim":11494,"omit":11495,"stones":11496,"Sifter":11497,"~~~~":11498,"##alia":11499,"Margaret":11500,"confide":11501,"##ICH":11502,"##orical":11503,"enters":11504,"poem":11505,"devour":11506,"Chi":11507,"bli":11508,"poured":11509,"##dn":11510,"##full":11511,"##omi":11512,"examples":11513,"Parli":11514,"Report":11515,"Regis":11516,"calculated":11517,"\"~":11518,"hli":11519,"wanton":11520,"pitch":11521,"icr":11522,"##riol":11523,"Abb":11524,"recoll":11525,"hia":11526,"##chools":11527,"##orte":11528,"produ":11529,"Jn":11530,"Measure":11531,"tory":11532,"rejec":11533,"fpr":11534,"AU":11535,"Share":11536,"Writers":11537,"fired":11538,"interests":11539,"ports":11540,"##//":11541,"ferm":11542,"##fat":11543,"Concl":11544,"Expre":11545,"##oil":11546,"MAN":11547,"defign":11548,"tower":11549,"uit":11550,"founds":11551,"answers":11552,"vag":11553,"shou":11554,"Convers":11555,"Whil":11556,"Orange":11557,"forme":11558,"##aper":11559,"quently":11560,"meek":11561,"MO":11562,"insens":11563,"quan":11564,"EI":11565,"enlight":11566,"Reb":11567,"indif":11568,"sown":11569,"Last":11570,"pock":11571,"confin":11572,"Freder":11573,"##ommun":11574,"##anation":11575,"imported":11576,"NA":11577,"odious":11578,"intreat":11579,"caufe":11580,"Revelation":11581,"witl":11582,"Liberties":11583,"##oro":11584,".',":11585,"##Ls":11586,"boiled":11587,"##folk":11588,"fwer":11589,"remembrance":11590,"wherewith":11591,"Whereas":11592,"foes":11593,"##cou":11594,"Relief":11595,"##ifti":11596,"cultivated":11597,"approaching":11598,"iP":11599,"adt":11600,"imposed":11601,"lang":11602,"##imis":11603,"Does":11604,"Neck":11605,"Isaac":11606,"thof":11607,"Arguments":11608,"expedient":11609,"Fund":11610,"##their":11611,"tbat":11612,"alf":11613,"##stant":11614,"##;:":11615,"Help":11616,"judicious":11617,"retained":11618,"aii":11619,"vita":11620,"sem":11621,"lol":11622,"##'-":11623,"bab":11624,"Hypo":11625,"fq":11626,"Poll":11627,"##liver":11628,"rents":11629,"##ENS":11630,"mate":11631,"##erogative":11632,"##hc":11633,"##royed":11634,"Tempt":11635,"eni":11636,"ses":11637,"Jove":11638,"objects":11639,"Employ":11640,"fmn":11641,"Marks":11642,"Difl":11643,"##ensation":11644,"##xa":11645,"ners":11646,"##igt":11647,"Gift":11648,"##rir":11649,"afforded":11650,"eC":11651,"FI":11652,"exchange":11653,"maker":11654,"refi":11655,"rect":11656,"renewed":11657,"xl":11658,"Situation":11659,"fct":11660,"continuing":11661,"depth":11662,"hris":11663,"Brid":11664,"drunk":11665,"EM":11666,"perpendicular":11667,"faif":11668,"esp":11669,"ily":11670,"Up":11671,"##umer":11672,"iD":11673,"Deed":11674,"rS":11675,"Safety":11676,"admiral":11677,"##ndy":11678,"Walter":11679,"Precept":11680,"communicate":11681,"rj":11682,"tia":11683,"##icable":11684,"Edition":11685,"##bol":11686,"fact":11687,"mistake":11688,"Exped":11689,"fable":11690,"##anded":11691,"Justices":11692,"##otl":11693,"iim":11694,"insinu":11695,"DA":11696,"liberties":11697,"110":11698,"guards":11699,"Prie":11700,"Ends":11701,"Attempt":11702,"vom":11703,"##amph":11704,"dost":11705,"##PER":11706,"##à":11707,"##aro":11708,"center":11709,"##nor":11710,"Herc":11711,"##fian":11712,"Ears":11713,"##iol":11714,"##iac":11715,"rendre":11716,"##ufion":11717,"Patient":11718,"caule":11719,"mp":11720,"##rb":11721,"##OOK":11722,"imb":11723,"##és":11724,"mong":11725,"##cli":11726,"waste":11727,"injured":11728,"deceased":11729,"Bishops":11730,"entend":11731,"lieve":11732,"immense":11733,"##enfe":11734,"dome":11735,"profp":11736,"delightful":11737,"Pleas":11738,"compa":11739,"fang":11740,"##fcnt":11741,"Freedom":11742,",'.":11743,"##81":11744,"poi":11745,"Liver":11746,"lth":11747,"##win":11748,"##nders":11749,"thers":11750,"haught":11751,"1e":11752,"Succ":11753,"tors":11754,"Folly":11755,"##ARY":11756,"Magn":11757,"##eln":11758,"finished":11759,"imitate":11760,"##onge":11761,"Prisoner":11762,"beauties":11763,"##uj":11764,"Pref":11765,"Cambridge":11766,"BL":11767,"ands":11768,"fcl":11769,"##iest":11770,"Knights":11771,"hated":11772,"hereto":11773,"probability":11774,"wont":11775,"##odes":11776,"luck":11777,"##iga":11778,"holiness":11779,"godly":11780,"toil":11781,"Cham":11782,"##HE":11783,"ima":11784,"Pon":11785,"Cloth":11786,"SIR":11787,"##izon":11788,"ejuf":11789,"Ls":11790,"houf":11791,"tac":11792,"Staff":11793,"tribes":11794,"alteration":11795,"Creation":11796,"##lam":11797,"bil":11798,"##wealth":11799,"Univer":11800,"thirteen":11801,"adorned":11802,"Gib":11803,"visited":11804,"adi":11805,"lud":11806,"Quod":11807,"##ifier":11808,"itill":11809,"##phem":11810,"xvii":11811,"habet":11812,"unwilling":11813,"anxious":11814,"unanim":11815,"Vef":11816,".,,":11817,"##uation":11818,"##mc":11819,"coff":11820,"confident":11821,"##uples":11822,"ule":11823,"##dess":11824,"tumult":11825,"##alry":11826,"##ibed":11827,"fqu":11828,"Pit":11829,"entr":11830,"rede":11831,"Iw":11832,"fiv":11833,"rct":11834,"abode":11835,"Prior":11836,"Cab":11837,"##inea":11838,"Palace":11839,"##sts":11840,",',":11841,"Corinth":11842,"hay":11843,"##GL":11844,"gree":11845,"##athe":11846,"2I":11847,"Redeemer":11848,"tyrant":11849,"Ez":11850,"~~~~~~~~~":11851,"Propri":11852,"complaints":11853,"obtaining":11854,"stay":11855,"tioned":11856,"RA":11857,"gilt":11858,"##lk":11859,"##itut":11860,"faces":11861,"relt":11862,"purity":11863,"Sums":11864,"fup":11865,"compelled":11866,"irr":11867,"Down":11868,"grey":11869,"Ende":11870,"strongly":11871,"Tum":11872,"ég":11873,"##elm":11874,"Executors":11875,"Sheep":11876,"tomb":11877,"elves":11878,",?":11879,"estates":11880,"iic":11881,"rious":11882,"writes":11883,"##athed":11884,"ory":11885,"juice":11886,"apprehended":11887,"lye":11888,"US":11889,"##erely":11890,"bree":11891,"nant":11892,"##apes":11893,"ruins":11894,"plague":11895,"##ifil":11896,"wished":11897,"revolution":11898,"rally":11899,"Kingdoms":11900,"##orce":11901,"##elter":11902,"Phili":11903,"poetry":11904,"show":11905,"##igneur":11906,"affected":11907,"-*":11908,"##ISH":11909,"decreed":11910,"arbitrary":11911,"chem":11912,"paflion":11913,"Deus":11914,"Chara":11915,"firange":11916,"border":11917,"reje":11918,"##ILL":11919,"instant":11920,"##jan":11921,"##thus":11922,"rence":11923,"grounded":11924,"game":11925,"sions":11926,"heredit":11927,"poets":11928,"limits":11929,"atten":11930,"lace":11931,"Fool":11932,"CX":11933,"Next":11934,"ros":11935,"Fell":11936,"THIS":11937,"Maced":11938,"Opera":11939,"##fg":11940,"ena":11941,"Arth":11942,"Blessed":11943,"firmly":11944,"Seas":11945,"J7":11946,"flh":11947,"nombre":11948,"##rove":11949,"Capit":11950,"Citizens":11951,"bliss":11952,"Teach":11953,"eternity":11954,"haste":11955,"tendency":11956,"7i":11957,"mare":11958,"summon":11959,"madam":11960,"##Co":11961,"##arb":11962,"apostle":11963,"excepted":11964,"Notion":11965,"##ecies":11966,"provision":11967,"##olu":11968,"Testament":11969,"grievous":11970,"attorney":11971,"management":11972,"lw":11973,"Wors":11974,"chez":11975,"favours":11976,"tends":11977,"waves":11978,"##AST":11979,"##itent":11980,"Pos":11981,"accompany":11982,"thofe":11983,"curiosity":11984,"2i":11985,"pany":11986,"Gof":11987,"rii":11988,"loaded":11989,"honoured":11990,"Bear":11991,"##ifles":11992,"springs":11993,"Charges":11994,"##hamed":11995,"coi":11996,"Shame":11997,"Flore":11998,"##itant":11999,"forfeited":12000,"burden":12001,"owner":12002,"##yrs":12003,"lte":12004,"##nti":12005,"Reputation":12006,"##quiry":12007,"pursu":12008,"bei":12009,"marble":12010,"ered":12011,"##ousin":12012,"interpre":12013,"##mine":12014,"impatient":12015,"finally":12016,"prior":12017,"grav":12018,"vision":12019,"spite":12020,"##etors":12021,"finners":12022,"Cbr":12023,"lust":12024,"ater":12025,"xix":12026,"171":12027,"((":12028,"Jufl":12029,"##utive":12030,"materials":12031,"Bench":12032,"quarrel":12033,"rim":12034,"##lent":12035,"opi":12036,"##tf":12037,"feroit":12038,"succeeding":12039,"illum":12040,"fires":12041,"carriage":12042,"despise":12043,"Height":12044,"befl":12045,"reasoning":12046,"producing":12047,"witnesses":12048,"Summer":12049,"Plain":12050,"survey":12051,"copper":12052,"expec":12053,"yd":12054,"avail":12055,"preparing":12056,"##ilhing":12057,"congregation":12058,"fio":12059,"intimate":12060,"images":12061,"alors":12062,"prefi":12063,"passes":12064,"Coach":12065,"##ket":12066,"northern":12067,"Soc":12068,"mock":12069,"altho":12070,"Try":12071,"extends":12072,"tlle":12073,"##isy":12074,"pluf":12075,"##orians":12076,"turb":12077,"eag":12078,"##inge":12079,"##kc":12080,"deff":12081,"ipf":12082,"Pred":12083,"Hc":12084,"##illt":12085,"##thel":12086,"##andy":12087,"nei":12088,"fetch":12089,"bloom":12090,"bride":12091,"Vine":12092,"dilig":12093,"multiply":12094,"Trust":12095,"##aneous":12096,"Troy":12097,")-":12098,".\\":12099,"slave":12100,"guerre":12101,"wool":12102,"pati":12103,"voluntary":12104,"mom":12105,"##told":12106,"absent":12107,"##Ai":12108,"cuts":12109,"sot":12110,"##chy":12111,"fua":12112,"habits":12113,"quer":12114,"Blo":12115,"##utton":12116,"andc":12117,"##arted":12118,"jf":12119,"Sup":12120,"##ibn":12121,"##ocate":12122,"debate":12123,"NI":12124,"slo":12125,"##rius":12126,"obli":12127,"yeux":12128,"hier":12129,"##rate":12130,"mm":12131,"Cos":12132,"Chrifi":12133,"Claim":12134,"Syria":12135,"mirac":12136,"Murder":12137,"Rex":12138,"particu":12139,"indebted":12140,"##LIAM":12141,"eter":12142,"admired":12143,"Only":12144,"##umpet":12145,"formidable":12146,"attachment":12147,"Whit":12148,"fubf":12149,"Cord":12150,"tremble":12151,"##ofl":12152,"1S":12153,"deftr":12154,"ern":12155,"Gate":12156,"Fruits":12157,"recourse":12158,"##ICK":12159,"fcript":12160,"allb":12161,"combat":12162,"Ric":12163,"##pu":12164,"Prejud":12165,":'.":12166,"##hey":12167,"Bark":12168,"foolish":12169,"Merchants":12170,"##fting":12171,"##dle":12172,"Weak":12173,"distrib":12174,"i9":12175,"Egl":12176,"##arv":12177,"##arte":12178,"minus":12179,"1a":12180,"Gran":12181,"mac":12182,"##orf":12183,"resist":12184,"Batt":12185,"##ugn":12186,"##lde":12187,"Benjamin":12188,"Efp":12189,"##mouth":12190,"tul":12191,"##ineas":12192,"defeat":12193,"tlic":12194,"Affair":12195,"muc":12196,"eggs":12197,"useless":12198,"ayant":12199,"Canterbury":12200,"incred":12201,"##cribing":12202,"##ioni":12203,"neighbourhood":12204,"cham":12205,"fpirit":12206,"gir":12207,"ria":12208,"uo":12209,"##dain":12210,"swift":12211,"exercised":12212,"meer":12213,"fubt":12214,"##afing":12215,"Pyr":12216,"iet":12217,"Poland":12218,"Soil":12219,"Naples":12220,"nia":12221,"rance":12222,"nig":12223,"CAR":12224,"borough":12225,"appla":12226,"moist":12227,"##tres":12228,"Stones":12229,"magnificent":12230,"##iflory":12231,"##pendant":12232,"##Ction":12233,"PER":12234,"Male":12235,"included":12236,"##;'":12237,"Thi":12238,"solution":12239,"Race":12240,"##bil":12241,"ated":12242,"tribute":12243,"qt":12244,"reigns":12245,"Fing":12246,"##ù":12247,"pd":12248,"lance":12249,"nerv":12250,"tack":12251,"Human":12252,"Tc":12253,"##itatis":12254,"##bery":12255,"##idelity":12256,"##aing":12257,"readers":12258,"Om":12259,"],":12260,"cof":12261,"incom":12262,"##Li":12263,"prelent":12264,"##iffent":12265,"Inte":12266,"##itory":12267,"NOT":12268,"##gia":12269,"yw":12270,"ouv":12271,"Quid":12272,"Mn":12273,"palt":12274,"retr":12275,"##Ad":12276,"abf":12277,"wheel":12278,"##Rs":12279,"amour":12280,"8th":12281,"Grounds":12282,"##idy":12283,"antiquity":12284,"lions":12285,"underflood":12286,"Remainder":12287,"rz":12288,"##gle":12289,"7T":12290,"##urus":12291,"Idem":12292,"##oled":12293,"##urers":12294,"Une":12295,"##Si":12296,"righ":12297,"tine":12298,"hlim":12299,"jew":12300,"Monday":12301,"yi":12302,"erv":12303,"scenes":12304,"##etb":12305,"Athe":12306,"SON":12307,"r3":12308,"##ipes":12309,"fv":12310,"fuiv":12311,"conqu":12312,"iie":12313,"jure":12314,"Colours":12315,"Cattle":12316,"fhall":12317,"Mul":12318,"prox":12319,"alo":12320,"vouch":12321,"Opinions":12322,"elec":12323,"mI":12324,"snow":12325,"obj":12326,"Ara":12327,"4d":12328,"offers":12329,"ibe":12330,"##RO":12331,"^.":12332,"##atly":12333,"Most":12334,"##ihed":12335,"##ying":12336,"brass":12337,"##ami":12338,"Clock":12339,"muit":12340,"clar":12341,"Market":12342,"Nicholas":12343,"Bor":12344,"##82":12345,"##aions":12346,"Disciples":12347,"IB":12348,"introduce":12349,"nod":12350,"lign":12351,"treas":12352,"##left":12353,"Fun":12354,"trouve":12355,"Rain":12356,"Figures":12357,"Fields":12358,"Oft":12359,"ats":12360,"eos":12361,"Fault":12362,"groan":12363,"composition":12364,"Matthew":12365,"pint":12366,"committee":12367,"##rong":12368,"deli":12369,"efpe":12370,"Ever":12371,"mailer":12372,"miff":12373,"Canaan":12374,"Pin":12375,"Emb":12376,"greatness":12377,"remarks":12378,"lH":12379,"vary":12380,"##atin":12381,"iar":12382,"##grat":12383,"allies":12384,"mofi":12385,"##chal":12386,"Jeho":12387,"VER":12388,"##esses":12389,"abandoned":12390,"magistr":12391,"fends":12392,"Cry":12393,"ener":12394,"EC":12395,"Stu":12396,"dei":12397,"ltr":12398,"pack":12399,"##PE":12400,"##umberland":12401,"##ulphur":12402,"Acqu":12403,"wb":12404,"Anton":12405,"mini":12406,"a2":12407,"feated":12408,"##AG":12409,"Cec":12410,"##umm":12411,"Remedy":12412,"##cry":12413,"Expence":12414,"judgments":12415,"imme":12416,"Rof":12417,"dip":12418,"Chrill":12419,"Prob":12420,"##ril":12421,"rebellion":12422,"##ampton":12423,"serm":12424,"betides":12425,"tread":12426,"lel":12427,"##enm":12428,"rthe":12429,"Papers":12430,"fop":12431,"fulfilled":12432,"derive":12433,"thread":12434,"ays":12435,"Rivers":12436,"duce":12437,"rite":12438,"droit":12439,"directly":12440,"pied":12441,"##ablifh":12442,"##SON":12443,"aliis":12444,"##chre":12445,"Hero":12446,"bir":12447,"##inian":12448,"whoever":12449,"Hun":12450,"yc":12451,"Tail":12452,"mains":12453,"refolv":12454,"Castle":12455,"treatment":12456,"devout":12457,"##uid":12458,"##On":12459,"jet":12460,"nent":12461,"gainft":12462,"herb":12463,"##icion":12464,"mof":12465,"##1l":12466,"invented":12467,"Heath":12468,"compound":12469,"Rul":12470,"utr":12471,"receipt":12472,"breed":12473,"Ral":12474,"continent":12475,"endeavouring":12476,"##JI":12477,"tlo":12478,"Cher":12479,"SECT":12480,"##voit":12481,"Flo":12482,"Ovid":12483,"mischief":12484,"titles":12485,"obfcr":12486,"##alogue":12487,"Pill":12488,"OB":12489,"companion":12490,"withi":12491,"quoted":12492,"Ain":12493,"Rab":12494,"Statutes":12495,"Bou":12496,"dwelling":12497,"ninth":12498,"litt":12499,"prcf":12500,"4i":12501,"pofli":12502,"##iastical":12503,"##arf":12504,"sd":12505,"chil":12506,"Doubt":12507,"jh":12508,"##pret":12509,"unclean":12510,"FE":12511,"flud":12512,"Reformation":12513,"extremity":12514,"shewed":12515,"Observations":12516,"communic":12517,"cii":12518,"##AI":12519,"flands":12520,"xo":12521,"Altar":12522,"levy":12523,"depl":12524,"chains":12525,"complained":12526,"contrived":12527,"Hair":12528,"##atile":12529,"Rol":12530,"puis":12531,"Chan":12532,"decre":12533,"10o":12534,"Wm":12535,"Accordingly":12536,"Elo":12537,"DU":12538,"discont":12539,"impet":12540,"rof":12541,"enac":12542,"furnished":12543,"loo":12544,"Latitude":12545,"lP":12546,"voit":12547,"deprive":12548,"##^^":12549,"dj":12550,"manage":12551,"Eight":12552,"Dow":12553,"##umpt":12554,"corner":12555,"antd":12556,"succ":12557,"##thinks":12558,"sage":12559,"diret":12560,"144":12561,"beast":12562,"##charge":12563,"géné":12564,"Sugar":12565,"conte":12566,"Cock":12567,"neut":12568,"Fit":12569,"rte":12570,"Irish":12571,"##agger":12572,"meal":12573,"Thousand":12574,"divert":12575,"##unal":12576,"ges":12577,"##berg":12578,"##mns":12579,"Lover":12580,":--":12581,"Ts":12582,"##efus":12583,"Voyage":12584,"impartial":12585,"##itty":12586,"Bag":12587,"##path":12588,"Dion":12589,"pronounce":12590,"fountain":12591,"##ician":12592,"ohn":12593,"innum":12594,"boys":12595,"nearest":12596,"Apollo":12597,"Maker":12598,"##adder":12599,"cec":12600,"sifter":12601,"chearful":12602,"##ieg":12603,"uld":12604,"perish":12605,"thar":12606,"pleases":12607,"##ffo":12608,"fufl":12609,"abfol":12610,"Stomach":12611,"Address":12612,"profpe":12613,"wherever":12614,"lall":12615,"covet":12616,"Rage":12617,"Shak":12618,"star":12619,"Juft":12620,"##zl":12621,"fuffic":12622,"Plin":12623,"ferment":12624,"Bern":12625,"Carol":12626,"yt":12627,"irs":12628,"granting":12629,"multiplied":12630,"prosperity":12631,"excluded":12632,"##pus":12633,"denotes":12634,"##ells":12635,"Priests":12636,"##ilio":12637,"##faction":12638,"valley":12639,"##fan":12640,"Ow":12641,"Divinity":12642,"##ffa":12643,"praying":12644,"garrison":12645,"Venice":12646,"##ustr":12647,"Sicily":12648,"Manor":12649,"Subs":12650,"##ointment":12651,"Mater":12652,"gion":12653,"daring":12654,"flanding":12655,"Dial":12656,"##itb":12657,"##usions":12658,"##fions":12659,"Fare":12660,"rre":12661,"Jc":12662,"West":12663,"Manners":12664,"Hold":12665,"clothes":12666,"gel":12667,"lih":12668,"étoient":12669,",.,":12670,"cis":12671,"Crimes":12672,"Sermons":12673,"##ANC":12674,"##inta":12675,"pond":12676,"Post":12677,"appl":12678,"acre":12679,"regularly":12680,"plun":12681,"amus":12682,"invention":12683,"prefe":12684,"Edit":12685,"##ubs":12686,"fanc":12687,"Signs":12688,"enquiry":12689,"forgotten":12690,"entry":12691,"decline":12692,"Nc":12693,"Pear":12694,"fip":12695,"FL":12696,"edit":12697,"unm":12698,"complex":12699,"sheep":12700,"Charter":12701,"##ka":12702,"Through":12703,"##ç":12704,"##rors":12705,"Rap":12706,"demonstr":12707,"coni":12708,"##zer":12709,"comparison":12710,"Conversation":12711,"Twas":12712,"Scott":12713,"revelation":12714,"##hips":12715,"tif":12716,"repaired":12717,"Swift":12718,"aif":12719,"feelings":12720,"Jord":12721,"whichl":12722,"volume":12723,"Bol":12724,"nio":12725,"illis":12726,"renown":12727,"ations":12728,"verses":12729,"foc":12730,"Hil":12731,"yielded":12732,"brid":12733,"owned":12734,"##7r":12735,"furnish":12736,"enlarged":12737,"##jd":12738,"##onomy":12739,"##uet":12740,"promis":12741,"PRE":12742,"rab":12743,"ora":12744,"1n":12745,"mutt":12746,"pus":12747,"defin":12748,"iand":12749,"##hand":12750,"wickedness":12751,"plot":12752,"difpof":12753,"vols":12754,"Ame":12755,"##edral":12756,"notorious":12757,"covering":12758,"particul":12759,"##imp":12760,"##itly":12761,"##ftra":12762,"##enus":12763,"Cau":12764,"engra":12765,"lowing":12766,"finger":12767,"##uper":12768,"XVII":12769,"##there":12770,"##atn":12771,"##omuch":12772,"lice":12773,"medicines":12774,"stomach":12775,"Contempt":12776,"tables":12777,"ya":12778,"itn":12779,"mant":12780,"r1":12781,"##iw":12782,"Sever":12783,"Claud":12784,"##arium":12785,"Date":12786,"##bf":12787,"##XXX":12788,"Very":12789,"##lus":12790,"##ilus":12791,"Lift":12792,"flor":12793,"stra":12794,"expet":12795,"Iri":12796,"companions":12797,"knees":12798,"##aign":12799,"rarely":12800,"quitted":12801,"##olm":12802,"tantum":12803,"Errors":12804,"Spart":12805,"Commerce":12806,"deliber":12807,"primitive":12808,"Them":12809,"feels":12810,"raf":12811,"tg":12812,"Whatever":12813,"cere":12814,"##loit":12815,"..:":12816,"valued":12817,"jufqu":12818,"##oure":12819,"states":12820,"evi":12821,"brothers":12822,"Excellency":12823,"tere":12824,"malicious":12825,"indulge":12826,"##111":12827,"plains":12828,"pipe":12829,"porte":12830,"##lee":12831,"Ease":12832,"liall":12833,"Baptism":12834,"Edmund":12835,"raifon":12836,"Offe":12837,"nme":12838,"rC":12839,"pict":12840,"unequal":12841,"agai":12842,"relax":12843,"Miracles":12844,"Into":12845,"##see":12846,"##cns":12847,"ihew":12848,"##cnd":12849,"disco":12850,"Flor":12851,"Nab":12852,"sides":12853,"amp":12854,"incident":12855,"Bottom":12856,"Ocean":12857,"urine":12858,"##aoh":12859,"Treason":12860,"Din":12861,"##xion":12862,"Support":12863,"moreover":12864,"hanc":12865,"ino":12866,"pia":12867,"fiery":12868,"Tir":12869,"feve":12870,"107":12871,"Norfolk":12872,"tyranny":12873,"Affe":12874,"COL":12875,"Advantages":12876,"dell":12877,"della":12878,"prae":12879,"inhabited":12880,"##ACE":12881,"Surely":12882,"##arre":12883,"##If":12884,"finner":12885,"tS":12886,"Reverend":12887,"##uh":12888,"Rig":12889,"Wars":12890,"endless":12891,"##pts":12892,"Pla":12893,"thoroughly":12894,"communion":12895,"silk":12896,"buildings":12897,"omni":12898,"\":":12899,"Spi":12900,"##ME":12901,"pursuit":12902,"Incon":12903,"Infant":12904,"confine":12905,"ads":12906,"##jur":12907,"n1":12908,"cess":12909,"noth":12910,"rog":12911,"##rous":12912,"##aor":12913,"hips":12914,"lation":12915,"alc":12916,"direction":12917,"Baf":12918,"enorm":12919,"nto":12920,"150":12921,"##rians":12922,"Lux":12923,"##rip":12924,"##ufque":12925,"Application":12926,"doubtless":12927,"Fles":12928,"##iton":12929,"boats":12930,"##chl":12931,"proce":12932,"unus":12933,"Deputy":12934,"##omas":12935,"DIS":12936,"Tb":12937,"Misfort":12938,"##ifons":12939,"cog":12940,"Wrath":12941,"Supper":12942,"conquered":12943,"ofr":12944,"crying":12945,"##phin":12946,"Horace":12947,"precepts":12948,"Less":12949,"##ernal":12950,"##amental":12951,"thrice":12952,"wonders":12953,"Ht":12954,"fiat":12955,"gloomy":12956,"alledged":12957,"Refpe":12958,"dogs":12959,"plied":12960,"heap":12961,"::.":12962,"BI":12963,"mieux":12964,"##enture":12965,"flames":12966,"foliis":12967,"/:":12968,"##yt":12969,"bellow":12970,"fydd":12971,"efprit":12972,"##liance":12973,"sport":12974,"##ANS":12975,"##verb":12976,"Attend":12977,"tending":12978,"claimed":12979,"fashion":12980,"rely":12981,"vail":12982,"Education":12983,"##DER":12984,"##ndon":12985,"TF":12986,"##inam":12987,"##gedy":12988,"Shore":12989,"disturb":12990,"beasts":12991,"rir":12992,"Thie":12993,"lire":12994,"##Rl":12995,"Gol":12996,"nii":12997,"Turk":12998,"xviii":12999,"Ruf":13000,"mio":13001,"\\.":13002,"blessing":13003,"senate":13004,"boldly":13005,"fible":13006,"wan":13007,"rand":13008,"##embling":13009,"instrument":13010,"Anf":13011,"##odem":13012,"joyful":13013,"Roll":13014,"##rov":13015,"regiment":13016,"##ffs":13017,"atte":13018,"3S":13019,"Watch":13020,"awe":13021,"bers":13022,"tec":13023,"tW":13024,"##iences":13025,"3r":13026,"Counsel":13027,"Journey":13028,"tlt":13029,"Transl":13030,"tne":13031,"censure":13032,"Vig":13033,"extingu":13034,"assigned":13035,"Ignorance":13036,"plates":13037,"Gun":13038,"##lea":13039,"aris":13040,"##fies":13041,"admon":13042,"ruined":13043,"confounded":13044,"interrupted":13045,"fera":13046,"chapel":13047,"ambitious":13048,"peine":13049,"faithfully":13050,"eil":13051,"cock":13052,"Aur":13053,"avez":13054,"sickness":13055,"Orn":13056,"exer":13057,"embraced":13058,"uin":13059,"##ifte":13060,"forsake":13061,"Bad":13062,"Oly":13063,"##iffet":13064,"nose":13065,"Particulars":13066,"impoflible":13067,"Lane":13068,"##vered":13069,"bleeding":13070,"##iencies":13071,"##dc":13072,"confers":13073,"award":13074,"xxii":13075,"##trines":13076,"honey":13077,"eighty":13078,"103":13079,"harmony":13080,"coal":13081,"##kn":13082,"blest":13083,"##mcnt":13084,"Spr":13085,"Jude":13086,"##oui":13087,"challen":13088,"ferent":13089,"Britann":13090,"Cli":13091,"fih":13092,"Poem":13093,"conm":13094,"ceremony":13095,"hwn":13096,"recomp":13097,"Breath":13098,"##Pt":13099,"enjoyment":13100,"settlement":13101,"Delight":13102,"bI":13103,"Liber":13104,"##dit":13105,"##father":13106,"iF":13107,"##abat":13108,"actually":13109,"##joined":13110,"##had":13111,"Powder":13112,"##iors":13113,"Pir":13114,"fyn":13115,"vant":13116,"canon":13117,"reception":13118,"##ancc":13119,"##opt":13120,"entreat":13121,"Difficulty":13122,"##bal":13123,"Antiqu":13124,"sublime":13125,"gardens":13126,"Inch":13127,"elsewhere":13128,"pI":13129,"##Ss":13130,"fools":13131,"fubl":13132,"ranks":13133,"##onent":13134,"##lord":13135,"Violence":13136,"tore":13137,"##ilius":13138,"profits":13139,"preventing":13140,"fingers":13141,"sit":13142,"trary":13143,"ouf":13144,"window":13145,"nle":13146,"ceed":13147,"misfortunes":13148,"relieved":13149,"dram":13150,"3I":13151,"devant":13152,"oif":13153,"Plot":13154,"Dol":13155,"fap":13156,"affirmed":13157,"Present":13158,"occafion":13159,"Pompe":13160,"Tan":13161,"prt":13162,"Kinds":13163,"Exercise":13164,"Small":13165,"##TR":13166,"Season":13167,"Walk":13168,"coloured":13169,"dedicated":13170,"kt":13171,"Occasions":13172,"##olves":13173,"mayor":13174,"lights":13175,"dh":13176,"conlt":13177,"Cla":13178,"perceiving":13179,"likew":13180,"##uities":13181,"Hof":13182,"coul":13183,"##fand":13184,"partake":13185,"Goth":13186,"Chry":13187,"##inels":13188,"appare":13189,"undone":13190,"##cht":13191,"begotten":13192,"fice":13193,"rio":13194,"##icon":13195,"Worship":13196,"spoil":13197,"publi":13198,"leisure":13199,"expences":13200,"Principal":13201,"ware":13202,"Whom":13203,"##antia":13204,"threatened":13205,"Allow":13206,"afternoon":13207,"counties":13208,"Cook":13209,"##amped":13210,"Flesh":13211,"insult":13212,"Sig":13213,"BOOK":13214,"Ifl":13215,"##rah":13216,"tart":13217,"virgin":13218,"iV":13219,"Catholick":13220,"exalt":13221,"Ces":13222,"np":13223,"dissolved":13224,"Malt":13225,"thte":13226,"conquest":13227,"Privileges":13228,"eis":13229,"##rice":13230,"##hill":13231,"##iig":13232,"Heathen":13233,"##bem":13234,"Wealth":13235,"Coin":13236,"##rus":13237,"##uat":13238,"flhall":13239,"##jeant":13240,"felicity":13241,"subsist":13242,"President":13243,"draught":13244,"yer":13245,"flocks":13246,"thousands":13247,"Egyptians":13248,"weap":13249,"Passage":13250,"iad":13251,"Poets":13252,"##ydd":13253,"yoke":13254,"anxi":13255,"##olen":13256,"Survey":13257,"lx":13258,"##reft":13259,"folio":13260,"apostles":13261,"Variety":13262,"Dat":13263,"acute":13264,"Whence":13265,"inflead":13266,"boiling":13267,"Hot":13268,"##fea":13269,"Perform":13270,"##El":13271,"Highness":13272,"Eternity":13273,"##uated":13274,"##bands":13275,"Rebellion":13276,"tenderness":13277,"##ignty":13278,"luxury":13279,"Chapel":13280,"cunning":13281,"##rad":13282,"annually":13283,"##iihed":13284,"##Aed":13285,"lT":13286,"104":13287,"Domini":13288,"fS":13289,"league":13290,"Belie":13291,"##6d":13292,"crowned":13293,"Weather":13294,"womb":13295,"modest":13296,"fas":13297,"beneficial":13298,"deme":13299,"Lar":13300,"residence":13301,"mig":13302,"o10":13303,"Saturday":13304,"Mare":13305,"##terre":13306,"juit":13307,"##inue":13308,"aln":13309,"realm":13310,".^":13311,"quando":13312,"explic":13313,"sung":13314,"annum":13315,"ual":13316,"unav":13317,"##lln":13318,"Herm":13319,"reveal":13320,"Dt":13321,"##pair":13322,"exactly":13323,"fto":13324,"gratify":13325,"knock":13326,"Operation":13327,"##azar":13328,"limbs":13329,"##vcral":13330,"attached":13331,"fortunes":13332,"treasure":13333,"Privy":13334,"##engers":13335,"cannon":13336,"urge":13337,"bhe":13338,"awake":13339,"suffering":13340,"letting":13341,"nv":13342,"veil":13343,"alio":13344,"vicious":13345,"##uire":13346,"thn":13347,"##otle":13348,"premi":13349,"hors":13350,"##liness":13351,"##lI":13352,"monument":13353,"exclaim":13354,"##itv":13355,"##sels":13356,"els":13357,"intentions":13358,"grandeur":13359,"bere":13360,"Chancery":13361,"haps":13362,"prime":13363,"libert":13364,"a3":13365,"Think":13366,"'.,":13367,"privy":13368,"nh":13369,"##ava":13370,"tefl":13371,"embark":13372,"maxim":13373,"provoke":13374,"6i":13375,"mercies":13376,"##cese":13377,"rebus":13378,"exception":13379,"erc":13380,"dv":13381,"beaute":13382,"##xta":13383,"xxi":13384,"/?":13385,"CAP":13386,"iec":13387,"treason":13388,"Draw":13389,"indi":13390,"aloud":13391,"Tac":13392,"##nie":13393,"Tt":13394,"mia":13395,"punished":13396,"Evangel":13397,"3t":13398,"fili":13399,"##ropol":13400,"##itie":13401,"Families":13402,"argent":13403,"fober":13404,"pendant":13405,"AJ":13406,"rapp":13407,"##ilem":13408,"climate":13409,"resign":13410,"oblong":13411,"theft":13412,"Refle":13413,"firom":13414,"tai":13415,"##sequent":13416,"##ulm":13417,"integrity":13418,"Scotch":13419,"ist":13420,"Mountains":13421,"Purs":13422,"favoured":13423,"vinc":13424,"##iche":13425,"##emes":13426,"Commiflion":13427,"##ridge":13428,"Influence":13429,"600":13430,"oppress":13431,"Malice":13432,"contents":13433,"##jer":13434,"manus":13435,"Slanders":13436,"hearty":13437,"smile":13438,"Slaves":13439,"Midd":13440,"##qr":13441,"nef":13442,"Need":13443,"##perors":13444,"prendre":13445,"tual":13446,"Scy":13447,"thereunto":13448,"bounty":13449,"Pity":13450,"##cly":13451,"Humour":13452,"Jen":13453,"##cfl":13454,"##mis":13455,"storm":13456,"##CL":13457,"cott":13458,"##ilful":13459,"discipline":13460,"ardent":13461,"damages":13462,"Kne":13463,"ius":13464,"##tober":13465,"##estors":13466,"Tempor":13467,"Methods":13468,"nerves":13469,"org":13470,"-(":13471,"Ded":13472,"dust":13473,"rine":13474,"oJ":13475,"##ounced":13476,"display":13477,"tJ":13478,"followers":13479,"pup":13480,"Aw":13481,"##ijh":13482,"Tenant":13483,"Hart":13484,"cate":13485,"##osal":13486,"##olutions":13487,"##adron":13488,"##odly":13489,"arrest":13490,"raw":13491,"##03":13492,"Poss":13493,"##ctor":13494,"##ixed":13495,";--":13496,"##elia":13497,"##enfis":13498,"rerum":13499,"BC":13500,"##wch":13501,"icc":13502,"particles":13503,"Popery":13504,"lJ":13505,"Iis":13506,"##ifol":13507,"inlt":13508,"-)":13509,"Juff":13510,"savage":13511,"%,":13512,"Content":13513,"ccn":13514,"doubts":13515,"communication":13516,"atl":13517,"resentment":13518,"obe":13519,"##fclf":13520,"##ourn":13521,"##Mr":13522,"##cends":13523,"evacu":13524,"BA":13525,"Counties":13526,"Kee":13527,"fume":13528,"imputed":13529,"xt":13530,"Lap":13531,"##itary":13532,"contributed":13533,"##iflop":13534,"attentive":13535,"mines":13536,"mno":13537,"flowing":13538,"subm":13539,"flows":13540,"bled":13541,"##jb":13542,"##fii":13543,"##ilian":13544,"Ard":13545,"Wound":13546,"##6r":13547,"inspire":13548,"forbidden":13549,"het":13550,"uter":13551,"Visc":13552,"executors":13553,"lE":13554,"##ifters":13555,"##anto":13556,"té":13557,"##icians":13558,"Mach":13559,"porter":13560,"Moor":13561,"Lud":13562,"Sentiments":13563,"##aintance":13564,"Bit":13565,"##inte":13566,"livres":13567,"##iate":13568,"copies":13569,"##LL":13570,"##orial":13571,"##urbed":13572,"##07":13573,"##ationis":13574,"Peers":13575,"##MENT":13576,"dict":13577,"##ilhment":13578,"hod":13579,"##np":13580,"Beg":13581,"##alc":13582,"othe":13583,"Sleep":13584,"Deo":13585,"mud":13586,"Heavens":13587,"Crow":13588,"gravity":13589,"Pence":13590,"##fom":13591,"##alr":13592,"profitable":13593,"beds":13594,"hiim":13595,"cI":13596,"rope":13597,"imitation":13598,"uncon":13599,"Inl":13600,"firing":13601,"Dl":13602,"tolerable":13603,"peuple":13604,"unlawful":13605,"##Ur":13606,"furious":13607,"oti":13608,"desperate":13609,"Ms":13610,"privately":13611,"opera":13612,"eloquence":13613,"redemption":13614,"Doug":13615,"##orp":13616,"##ediately":13617,"##ftly":13618,"Spanish":13619,"hm":13620,"asso":13621,"##oufnefs":13622,"Continu":13623,"Frank":13624,"oul":13625,"##ORY":13626,"attained":13627,"Cd":13628,"hujus":13629,"##iau":13630,"tian":13631,"##crd":13632,"##rants":13633,"series":13634,"etern":13635,"eccles":13636,"Wef":13637,"Examples":13638,"European":13639,"feul":13640,"inno":13641,"Saturn":13642,"haughty":13643,"bin":13644,"lawfully":13645,"sentiment":13646,"executor":13647,"##estic":13648,"Islands":13649,"animated":13650,"##quef":13651,"##rages":13652,"vered":13653,"Intention":13654,"Breast":13655,"timber":13656,"aA":13657,"##EE":13658,"##iffion":13659,"wli":13660,"##erf":13661,"loth":13662,"Scene":13663,"creditors":13664,"Scheme":13665,"Rub":13666,"##isk":13667,"rol":13668,"Arthur":13669,"inven":13670,"dired":13671,"mounted":13672,"Fu":13673,"guess":13674,"Laure":13675,"iniqu":13676,"Phi":13677,"cw":13678,"conspir":13679,"inspired":13680,"omnium":13681,"frat":13682,"maketh":13683,"Dic":13684,"Hic":13685,"oin":13686,"##mos":13687,"exac":13688,"cuf":13689,"rice":13690,"Fears":13691,"whereupon":13692,"sufferings":13693,"pf":13694,"jn":13695,"Commod":13696,"Main":13697,"quatre":13698,"Sla":13699,"stronger":13700,"obliging":13701,"breaks":13702,"##aler":13703,"Jol":13704,"protection":13705,"hinm":13706,"Sd":13707,"##osoever":13708,"##parable":13709,"##giance":13710,"Sion":13711,"lesser":13712,"vernment":13713,"olt":13714,"Religious":13715,"abundantly":13716,"foretold":13717,"Obligation":13718,"severity":13719,"##Ets":13720,"Bones":13721,"Ou":13722,"Nine":13723,"['":13724,"begged":13725,"Globe":13726,"roof":13727,"Ere":13728,"depended":13729,"GEN":13730,"OC":13731,"6t":13732,"##url":13733,"##ceptions":13734,"Bride":13735,"Nar":13736,"convert":13737,"tenants":13738,"Grecian":13739,"map":13740,"oir":13741,"##race":13742,"dun":13743,"##fig":13744,"fick":13745,"##inz":13746,"insist":13747,"Step":13748,"Hoc":13749,"deftru":13750,"angu":13751,"##aii":13752,"establish":13753,"inner":13754,"tlhat":13755,"CT":13756,"agent":13757,"aucun":13758,"##llable":13759,"degener":13760,"smaller":13761,".\"'":13762,"mufft":13763,"##onm":13764,"##09":13765,"subsequent":13766,"Holiness":13767,"Pto":13768,"##ités":13769,"Protestant":13770,"penalty":13771,"haec":13772,"convent":13773,"Ambition":13774,"##leness":13775,"lieutenant":13776,"renounce":13777,"##erton":13778,"prodig":13779,"Description":13780,"moves":13781,"bands":13782,"##ources":13783,"##iret":13784,"formal":13785,"Pharaoh":13786,"##uie":13787,"san":13788,"##gro":13789,"decided":13790,"veh":13791,"encouragement":13792,"wifely":13793,"prescribed":13794,"Thirdly":13795,"##ighs":13796,"##ufalem":13797,"Encour":13798,"hanging":13799,"##iunt":13800,"bb":13801,"reconcile":13802,"##isses":13803,"##ammar":13804,"Tf":13805,"moil":13806,"Meeting":13807,"##isi":13808,"Swe":13809,"##vement":13810,"coeur":13811,"Bod":13812,"bankrupt":13813,"##lid":13814,"##gd":13815,"refuge":13816,"propter":13817,"xa":13818,"decent":13819,"aper":13820,"##mnent":13821,"autant":13822,"ceased":13823,"##isible":13824,"mov":13825,"##cue":13826,"recom":13827,"Milk":13828,"Sau":13829,"Borough":13830,"instantly":13831,"Reco":13832,"##ertion":13833,"patent":13834,"Succe":13835,"themi":13836,"smell":13837,"Purch":13838,"gem":13839,"145":13840,"adjoin":13841,"favor":13842,"Pitt":13843,"outs":13844,"disorders":13845,"repose":13846,"vend":13847,"Pretence":13848,"##ccd":13849,"##arse":13850,"Cato":13851,"##ounding":13852,"Walls":13853,"##aer":13854,"##.:":13855,"whlo":13856,"##ngs":13857,"Represent":13858,"Discover":13859,"Period":13860,"temptation":13861,"appar":13862,"throwing":13863,"9th":13864,"justify":13865,"Anger":13866,"Ther":13867,"invi":13868,"06":13869,"##OV":13870,"pont":13871,"counted":13872,"tons":13873,"luy":13874,"Nobility":13875,"ink":13876,"fidelity":13877,"Vien":13878,"whiich":13879,"Vent":13880,"##flf":13881,"fertile":13882,"##tic":13883,"heretofore":13884,"mistress":13885,"JES":13886,"Whilst":13887,"##ensed":13888,"Alth":13889,"Appre":13890,"wick":13891,"innumerable":13892,"itrong":13893,"Observation":13894,"aul":13895,"##your":13896,"##otr":13897,"block":13898,"SL":13899,"##har":13900,"accustom":13901,"Forms":13902,"Rank":13903,"persever":13904,"etr":13905,"Treatise":13906,"repet":13907,"AV":13908,"veter":13909,"Hea":13910,"envoy":13911,"##ASS":13912,"metal":13913,"alarmed":13914,"##/,":13915,"##neis":13916,"engagement":13917,"joining":13918,"crowns":13919,"licet":13920,"fus":13921,"##hil":13922,"cce":13923,"Profit":13924,"##uim":13925,"tib":13926,"range":13927,"##qn":13928,"##iques":13929,"hing":13930,"ridicule":13931,"Pract":13932,"mv":13933,"tient":13934,"thod":13935,"##earing":13936,"changing":13937,"Branch":13938,"##1s":13939,"killing":13940,"zd":13941,"##itd":13942,"##anged":13943,"##rds":13944,"Liquor":13945,"aer":13946,"surprised":13947,"rej":13948,"Lease":13949,"thol":13950,"##via":13951,"veins":13952,"Gor":13953,"pofle":13954,"##zc":13955,"Ful":13956,"##antic":13957,"ancients":13958,"##ultan":13959,"iif":13960,"pirit":13961,"loi":13962,"MR":13963,"##afis":13964,"Pere":13965,"borrowed":13966,"Skill":13967,"audience":13968,"disagreeable":13969,"mechan":13970,"Mens":13971,"complet":13972,"ordain":13973,"##rce":13974,"ordre":13975,"incline":13976,"Oaths":13977,"Tea":13978,"Drink":13979,"Relations":13980,"applying":13981,"affect":13982,"##essions":13983,"guns":13984,"tod":13985,"Penalty":13986,"tE":13987,"nobles":13988,"desiring":13989,"teen":13990,"fE":13991,"##utis":13992,"Action":13993,"Cf":13994,"MY":13995,"bids":13996,"villain":13997,"grove":13998,"Measures":13999,"fret":14000,"indic":14001,"depos":14002,"tA":14003,"ias":14004,"Dans":14005,"##abi":14006,"##unl":14007,"TT":14008,"##iration":14009,"Dominions":14010,"Pic":14011,"Gifts":14012,"encoun":14013,"iro":14014,"irit":14015,"bowels":14016,"##flo":14017,"cave":14018,"147":14019,"##attern":14020,"perfection":14021,"o2":14022,"##ofis":14023,"discour":14024,"semper":14025,"informs":14026,"valiant":14027,"##iscop":14028,"angles":14029,"theL":14030,"##peare":14031,"Extrem":14032,"nw":14033,"jc":14034,"reasonably":14035,"Designs":14036,"Stranger":14037,"Portion":14038,"Mercury":14039,"Philosophy":14040,"Too":14041,"MON":14042,"lW":14043,"Impr":14044,"Taylor":14045,"perplex":14046,"Aqu":14047,"Cate":14048,"treating":14049,"Moreover":14050,"M1":14051,"164":14052,"condut":14053,"sacrific":14054,"stop":14055,"didft":14056,"tame":14057,"tage":14058,"##uar":14059,"##umns":14060,".'-":14061,"malhe":14062,"Cette":14063,"reconciled":14064,"##7e":14065,"iR":14066,"disgu":14067,"intirely":14068,"Ene":14069,"nomen":14070,"authent":14071,"plen":14072,"ipfi":14073,"managed":14074,"133":14075,"Learned":14076,"700":14077,"##asm":14078,"##uteur":14079,"teaches":14080,"##idus":14081,"difi":14082,"##plus":14083,"talking":14084,"XIX":14085,"Cromwell":14086,"brow":14087,"##yers":14088,"Sear":14089,"##onr":14090,"Daughters":14091,"fulfil":14092,"supra":14093,"##ifance":14094,"TS":14095,"fills":14096,"solic":14097,"nymph":14098,"steps":14099,"##Fr":14100,"issued":14101,"prx":14102,"believes":14103,"Upper":14104,"##pended":14105,"trouver":14106,"physician":14107,"Sho":14108,"compos":14109,"ftre":14110,"batter":14111,"##~-":14112,"Chair":14113,"obf":14114,"pox":14115,"distinguish":14116,"unfit":14117,"z4":14118,"##seen":14119,"Conver":14120,"Tie":14121,"##aque":14122,"##tin":14123,"benefits":14124,"Meat":14125,"Pole":14126,"Vanity":14127,"fand":14128,"Conft":14129,"##/.":14130,"bonne":14131,"Circumstances":14132,"##utary":14133,"##uci":14134,"##okes":14135,"lix":14136,"##ouls":14137,"melted":14138,"Issue":14139,"export":14140,"##PP":14141,"carnal":14142,"allowing":14143,"aston":14144,"LoRD":14145,"Devotion":14146,"pouvoir":14147,"preservation":14148,"manly":14149,"corpore":14150,"Chrifti":14151,"accurate":14152,"Leagues":14153,"##tus":14154,"8o":14155,"minor":14156,"gaz":14157,"rupt":14158,"Ll":14159,"Near":14160,"mifer":14161,"alii":14162,"Chart":14163,"Tun":14164,"113":14165,"closely":14166,"clause":14167,"ough":14168,"rE":14169,"vix":14170,"##aping":14171,"##fiion":14172,"wash":14173,"##alter":14174,"thoug":14175,"stated":14176,"faculties":14177,"quef":14178,"##erl":14179,"Rou":14180,"VE":14181,"iam":14182,"industry":14183,"Administr":14184,"##ées":14185,"##gm":14186,"Academ":14187,"strike":14188,"aT":14189,"adh":14190,"##iral":14191,"Anthony":14192,"bim":14193,"Buf":14194,"##igues":14195,"Ads":14196,"region":14197,"x6":14198,"grants":14199,"beside":14200,"olf":14201,"Mahomet":14202,"Ferd":14203,"##uctions":14204,"delighted":14205,"gol":14206,"Revolution":14207,"divin":14208,"##umbent":14209,"##05":14210,"##uman":14211,"fru":14212,"advantageous":14213,"Sinc":14214,"perman":14215,"considerably":14216,"ete":14217,"Graces":14218,"expressly":14219,"Hamilton":14220,"vows":14221,"##aller":14222,"publickly":14223,"damage":14224,"Clement":14225,"iome":14226,"-.-":14227,"couple":14228,"08":14229,"dI":14230,"fhl":14231,"'.:":14232,"Necessity":14233,"Gon":14234,"unle":14235,"Gregory":14236,"*;":14237,"placing":14238,"Jane":14239,"ungr":14240,"tee":14241,"liquid":14242,"laqu":14243,"##ilee":14244,"crowd":14245,"vest":14246,"##ailing":14247,"tains":14248,"##etta":14249,"meaf":14250,"',,":14251,"Rl":14252,"spark":14253,"excepting":14254,"arnd":14255,"Accom":14256,"##ECT":14257,"##iied":14258,"##inct":14259,";..":14260,"Grey":14261,"Tlh":14262,"artificial":14263,"##sell":14264,"rue":14265,"##iffi":14266,"ascribed":14267,"jul":14268,"deem":14269,"Sacred":14270,"##bm":14271,"theml":14272,"holden":14273,"Information":14274,"potent":14275,"hund":14276,"Stage":14277,"T1":14278,"dealt":14279,"ftep":14280,"Forg":14281,"adjacent":14282,"noi":14283,"Newton":14284,"Study":14285,"lA":14286,"Cann":14287,"orld":14288,"knights":14289,"##sl":14290,"dividing":14291,"tents":14292,"Sine":14293,"wvill":14294,"numer":14295,"liament":14296,"lure":14297,"Prudence":14298,"2a":14299,"##mity":14300,"Hift":14301,"demn":14302,"Exchange":14303,"argue":14304,"tabernacle":14305,"Ely":14306,"contem":14307,"unbel":14308,"tingle":14309,"Jordan":14310,"Afi":14311,"paths":14312,"depending":14313,"Viscount":14314,"wept":14315,"Happy":14316,"Gentle":14317,"Services":14318,"état":14319,"Bret":14320,"lnd":14321,"mettre":14322,"warmth":14323,"##rue":14324,"##aca":14325,"Hog":14326,"talked":14327,"quence":14328,"Advent":14329,"sincerely":14330,"lave":14331,"##num":14332,"forl":14333,"attributed":14334,"maje":14335,"Tranf":14336,"Mic":14337,"Anci":14338,"##nus":14339,"arb":14340,"'&":14341,"Mini":14342,"lovers":14343,"extravagant":14344,"##leen":14345,"thai":14346,"Mailer":14347,"nus":14348,"deck":14349,"##into":14350,"flhe":14351,"##ilts":14352,"Triumph":14353,"Ite":14354,"aure":14355,"worm":14356,"pluck":14357,"ocul":14358,"##oz":14359,"Sabbath":14360,"conflant":14361,"##ugal":14362,"Purposes":14363,"ncc":14364,"##iori":14365,"expression":14366,"particip":14367,"146":14368,"fcn":14369,"Ft":14370,"Enjoy":14371,"tops":14372,"##ussia":14373,"Rid":14374,"conit":14375,"bounded":14376,"thcm":14377,"afterward":14378,"neceflity":14379,"Gou":14380,"Inher":14381,"igh":14382,"Denmark":14383,"flone":14384,"penny":14385,"mec":14386,"##alogy":14387,"Fren":14388,"z3":14389,"Athenians":14390,"##04":14391,"##wyd":14392,"weeping":14393,"beams":14394,"alb":14395,".::":14396,"inherit":14397,"ike":14398,"andr":14399,"141":14400,"123":14401,"A1":14402,"Ring":14403,"appetite":14404,"a4":14405,"##efl":14406,"tradition":14407,"frail":14408,"liar":14409,"lungs":14410,"hypocr":14411,"135":14412,"fomet":14413,"rated":14414,"cerning":14415,"Instr":14416,"ennem":14417,"Cri":14418,"##igg":14419,"venerable":14420,"hui":14421,"kr":14422,"ara":14423,"##ftand":14424,"enfin":14425,"speedy":14426,"##hm":14427,"Catholic":14428,"##inals":14429,"Apoft":14430,"Ran":14431,"kifs":14432,"illo":14433,"wha":14434,"removing":14435,"prophecy":14436,"Johnson":14437,"Breach":14438,"canl":14439,"dung":14440,"stranger":14441,"##icans":14442,"regions":14443,"Oxon":14444,"lio":14445,"decide":14446,"Fancy":14447,"crew":14448,"lodg":14449,"##pot":14450,"Ihort":14451,"passages":14452,"needful":14453,"masters":14454,"wand":14455,"ong":14456,"##emon":14457,"Confidence":14458,"Perfe":14459,"inquire":14460,"individuals":14461,"\";":14462,"rch":14463,"fev":14464,"143":14465,"busy":14466,"##uro":14467,"praises":14468,"felon":14469,"throat":14470,"boards":14471,"impious":14472,"gotten":14473,"rode":14474,"critical":14475,"BO":14476,"##vest":14477,"##jon":14478,"##trs":14479,"plufieurs":14480,"##bris":14481,"##tis":14482,"insisted":14483,"auroit":14484,"tude":14485,"Patrick":14486,"##cont":14487,"fary":14488,"rus":14489,"miraculous":14490,"##antinople":14491,"lier":14492,"countrymen":14493,"##undy":14494,"holl":14495,"migh":14496,"##CT":14497,"4r":14498,"supplies":14499,"indulgence":14500,"##PI":14501,"##ofition":14502,"##pan":14503,"nobl":14504,"ligion":14505,"Center":14506,"o8":14507,"doom":14508,"##when":14509,"fores":14510,"Rat":14511,"opens":14512,"##ulit":14513,"fept":14514,"ccc":14515,"149":14516,"167":14517,"reference":14518,"##tea":14519,"wY":14520,"fpi":14521,"crop":14522,"raid":14523,"IY":14524,"Lower":14525,"Estates":14526,"administration":14527,"Gord":14528,"rA":14529,"##izance":14530,"vigil":14531,"Syr":14532,"submitted":14533,"fortunate":14534,"##roc":14535,"frig":14536,"mii":14537,"brut":14538,"aller":14539,"descent":14540,"social":14541,"hears":14542,"##ustees":14543,"##vii":14544,"fubm":14545,"##CO":14546,"fomne":14547,"guardian":14548,"pocket":14549,"ict":14550,"chl":14551,"subjea":14552,"conferred":14553,"alla":14554,"repref":14555,"##gis":14556,"competent":14557,"anchor":14558,"Persia":14559,"enlarge":14560,"Locke":14561,"##Ul":14562,"organ":14563,"abb":14564,"Slave":14565,"cheap":14566,"Belief":14567,"LOND":14568,"fighting":14569,"icl":14570,"quorum":14571,"Offer":14572,"HIS":14573,"opus":14574,"KING":14575,"sua":14576,"Contro":14577,"undertook":14578,"##acre":14579,"Pad":14580,"Siege":14581,"Reading":14582,"condes":14583,"HY":14584,"##udion":14585,"therewith":14586,"Horn":14587,"Patron":14588,"beam":14589,"nifi":14590,"136":14591,"/~":14592,"Living":14593,"earnestly":14594,"tz":14595,"##oult":14596,"Multip":14597,"rable":14598,"##olr":14599,"##ENCE":14600,"rings":14601,"##flanding":14602,"pears":14603,"scriptures":14604,"Bir":14605,"Tend":14606,"##orl":14607,"##uw":14608,"entertainment":14609,"##ORE":14610,"Gho":14611,"preserving":14612,"##emblies":14613,"Pair":14614,"139":14615,"##enlt":14616,"119":14617,"&;":14618,"##nin":14619,"parler":14620,"iO":14621,"finest":14622,"characters":14623,"##uming":14624,"##agor":14625,"uneasy":14626,"atr":14627,"Station":14628,"Ao":14629,"ccr":14630,"teaching":14631,"##raf":14632,"##owered":14633,"represents":14634,"Mv":14635,"dcc":14636,"##ourt":14637,".;.":14638,"##ouch":14639,"##ilium":14640,"Carn":14641,"fearful":14642,"Writer":14643,"bein":14644,"##rob":14645,"##ancer":14646,"quc":14647,"##elo":14648,"commiflion":14649,"jurifd":14650,"##oking":14651,"Mun":14652,"Rents":14653,"Hilt":14654,"rifes":14655,"meets":14656,"ability":14657,"##llion":14658,"arl":14659,"##ders":14660,"##enfion":14661,"imperf":14662,"onr":14663,"##illo":14664,"Pleasures":14665,"ett":14666,"',.":14667,"##MA":14668,"Worth":14669,"filed":14670,"beer":14671,"tired":14672,"!--":14673,"converse":14674,"fals":14675,"##kd":14676,"##udge":14677,":.'":14678,"walks":14679,"solicit":14680,"114":14681,"characer":14682,"humility":14683,"##ibs":14684,"##hort":14685,"avons":14686,"Subjec":14687,"##iè":14688,"--,":14689,"##lians":14690,"delights":14691,"crucified":14692,"Darkness":14693,"lamb":14694,"properties":14695,"240":14696,"wI":14697,"##lois":14698,"Notwith":14699,"villages":14700,"floor":14701,"##atures":14702,"flick":14703,"Ln":14704,"tard":14705,"##unken":14706,"proving":14707,"laboured":14708,"injurious":14709,"Mos":14710,"tap":14711,"flir":14712,"Yard":14713,"##kh":14714,"himl":14715,"##atam":14716,"nephe":14717,"Caft":14718,"Rays":14719,"##imation":14720,"soo":14721,"Lis":14722,"captive":14723,"##SS":14724,"edi":14725,"Constitution":14726,"nisi":14727,"advan":14728,"parl":14729,"Mile":14730,"Moral":14731,"fecond":14732,"illustrious":14733,"Misery":14734,"cach":14735,"eJ":14736,"Corruption":14737,"suspicion":14738,"PSAL":14739,"Gates":14740,"peas":14741,"Pafl":14742,"licence":14743,"Sold":14744,"ending":14745,"Cub":14746,"Ros":14747,"##Ed":14748,"reformation":14749,"Ken":14750,"hf":14751,"mufi":14752,"Uly":14753,"##caf":14754,"pror":14755,"conjun":14756,"Revenge":14757,"##iffance":14758,"rcf":14759,"Gla":14760,"affir":14761,"recited":14762,"unpro":14763,"tongues":14764,"##++":14765,"##ustody":14766,"##cp":14767,"db":14768,"manufact":14769,"depra":14770,"##icia":14771,"excellence":14772,"iW":14773,"##ffle":14774,"Comte":14775,"Cen":14776,"guarded":14777,"CD":14778,"welfare":14779,"Heret":14780,"obligations":14781,"lence":14782,"suited":14783,"yl":14784,"Seigneur":14785,"Decree":14786,"majority":14787,"137":14788,"devise":14789,"harp":14790,"Infer":14791,"##ffor":14792,"hunger":14793,"fob":14794,"rapt":14795,"##6s":14796,"advancing":14797,"Tee":14798,"obeyed":14799,"LU":14800,"foch":14801,"bulk":14802,"##vd":14803,"##iveness":14804,"frown":14805,"t4":14806,"implies":14807,"##gé":14808,"Uncle":14809,"unac":14810,"iq":14811,"captivity":14812,"##\"\"":14813,"##ppa":14814,"rne":14815,"##ustice":14816,"threaten":14817,"Reform":14818,"vital":14819,"Haz":14820,"##icing":14821,"prima":14822,"roar":14823,"risen":14824,"Keep":14825,"Len":14826,"##emens":14827,"firft":14828,"##6n":14829,"Agreement":14830,"legit":14831,"nad":14832,"appointment":14833,"feats":14834,"volatile":14835,"Fish":14836,"##roes":14837,"blows":14838,"ged":14839,"##igu":14840,"eI":14841,"Sta":14842,"agrees":14843,"femme":14844,"fortified":14845,"kl":14846,"##qlue":14847,"remon":14848,"Wounds":14849,"##MI":14850,"horns":14851,"luf":14852,"role":14853,"Passion":14854,"natu":14855,"Soci":14856,"prejudices":14857,"Strangers":14858,"TP":14859,"fog":14860,"unreasonable":14861,"clt":14862,"hunc":14863,"deeper":14864,"undergo":14865,"operate":14866,"knot":14867,"Disease":14868,"manu":14869,"pail":14870,"2r":14871,"127":14872,"fue":14873,"filly":14874,"profession":14875,"ipse":14876,"furprize":14877,",.'":14878,"fave":14879,"Advers":14880,"##oughs":14881,"trav":14882,"thev":14883,"##mun":14884,"##pare":14885,"elders":14886,"qlue":14887,"aP":14888,"indisp":14889,"judging":14890,"Follow":14891,"##GHT":14892,".':":14893,"Gray":14894,"125":14895,"neglect":14896,"medium":14897,"dli":14898,"##law":14899,"##back":14900,"ast":14901,"##hile":14902,"##cco":14903,"'^":14904,"lowest":14905,"prol":14906,"Warwick":14907,"##des":14908,"efs":14909,"Hif":14910,"commanding":14911,"BAR":14912,"erected":14913,"Poetry":14914,"largest":14915,"fae":14916,"##llon":14917,"##urten":14918,"##iris":14919,"anm":14920,"perl":14921,"moder":14922,"inquiry":14923,"138":14924,"##hom":14925,"cites":14926,"##udo":14927,"Surface":14928,"navy":14929,"againt":14930,"termed":14931,"##ract":14932,"relig":14933,"adl":14934,"ciples":14935,"Lent":14936,"Maria":14937,"##edding":14938,"troublesome":14939,"ashamed":14940,"PART":14941,"Vessels":14942,"##lher":14943,"Wool":14944,"furprized":14945,"oaths":14946,"zr":14947,"##ester":14948,"oak":14949,"thed":14950,"##otn":14951,"##nell":14952,"Bone":14953,"Archbishop":14954,"landing":14955,"amidst":14956,"##inand":14957,"princess":14958,"efc":14959,"GRE":14960,"autor":14961,"quasi":14962,"mirth":14963,"mly":14964,"profane":14965,"Magistr":14966,"hlave":14967,"sv":14968,"##uter":14969,"verba":14970,"apartment":14971,"cours":14972,"seeming":14973,"cloaths":14974,"##orks":14975,"##roi":14976,"alfo":14977,"##fqu":14978,"unnatural":14979,"Confirm":14980,"increasing":14981,"arme":14982,"west":14983,"belle":14984,"peak":14985,"facile":14986,"##icer":14987,"WILLIAM":14988,"##idered":14989,"^,":14990,"Hus":14991,"utm":14992,"Animals":14993,"##fei":14994,"sincerity":14995,"pé":14996,"Intell":14997,"##oping":14998,"Speak":14999,"inconsist":15000,"aus":15001,"##hu":15002,"fuerit":15003,"##picuous":15004,"Cave":15005,"Fib":15006,"bottle":15007,"##NESS":15008,"$.":15009,"1z":15010,"dant":15011,"Ice":15012,"corpus":15013,"Agr":15014,"seriously":15015,"163":15016,"cff":15017,"plays":15018,"Sufferings":15019,"##feif":15020,"Learn":15021,"tobe":15022,"##uris":15023,"Appro":15024,"oedd":15025,"lre":15026,"##usts":15027,"Mlr":15028,"nought":15029,"negative":15030,"i0":15031,"doe":15032,"Angles":15033,"temples":15034,"mnan":15035,"pell":15036,"natura":15037,"134":15038,"117":15039,"Keeper":15040,
[...]
